/**
  ******************************************************************************
  * @file    network_data_params.c
  * @author  AST Embedded Analytics Research Platform
  * @date    2026-01-02T21:26:28+0300
  * @brief   AI Tool Automatic Code Generator for Embedded NN computing
  ******************************************************************************
  * Copyright (c) 2026 STMicroelectronics.
  * All rights reserved.
  *
  * This software is licensed under terms that can be found in the LICENSE file
  * in the root directory of this software component.
  * If no LICENSE file comes with this software, it is provided AS-IS.
  ******************************************************************************
  */

#include "network_data_params.h"


/**  Activations Section  ****************************************************/
ai_handle g_network_activations_table[1 + 2] = {
  AI_HANDLE_PTR(AI_MAGIC_MARKER),
  AI_HANDLE_PTR(NULL),
  AI_HANDLE_PTR(AI_MAGIC_MARKER),
};




/**  Weights Section  ********************************************************/
AI_ALIGNED(32)
const ai_u64 s_network_weights_array_u64[16005] = {
  0xbe9bebac3d7b93d0U, 0xbe33fad33df0e362U, 0xbc28b8533e6a5a7dU, 0xbddc1b2fbe2e7aa1U,
  0x3d81768ebe5def4aU, 0xbe818a683e0a755bU, 0x3e510de23e6d298cU, 0xbd5cfbc5be82ac74U,
  0x3dfca73abcdb14cbU, 0x3ea4266f3e6082e5U, 0xbd8c5172bc52d3f7U, 0x3dcf3da83df379d4U,
  0x3e8b6f85bd8db4d8U, 0x3d6a24283d3db3ceU, 0x3e9421f33e2546d3U, 0x3ce0290dbe0bfe61U,
  0xbe0b85663edddd73U, 0xbeb10f1abdbc11cfU, 0xbd2fde84bddc46a1U, 0x3d05234d3e5a8d82U,
  0x3de1b6a7be113cf6U, 0x3e754fdc3ed7bae3U, 0x3d9430bf3e4fb847U, 0x3e435135be937c2cU,
  0xbd47131dbe9a55ceU, 0x3c96f2f23e4a1ac9U, 0x3ddb31e3bd88c5e6U, 0x3d1502613e6e2891U,
  0x3eaf8bd13db3db49U, 0xbc224494bd64cb59U, 0xbf00a5b23ed40a1aU, 0xbc0ec30c3d27c85aU,
  0xbded08493dfbc689U, 0xbceb46713da04f5fU, 0x3d46b1e03d99879bU, 0x3d52f32c3ed7e3dfU,
  0x3da943ef3d91cc99U, 0x3e198859bee0ce49U, 0x3d0d10473e9a035bU, 0x3e301714bcf5d9bbU,
  0x3e18c60d3d72ecfeU, 0x3eed62343e28e210U, 0xbc568bff3e5c8ce7U, 0xbebd80923d7914a2U,
  0xbe2dbc833df2e8c2U, 0x3de15de23e009c47U, 0xbc93b004bcb99a72U, 0x3c083801bd1dd49aU,
  0xbdee77c73e3c5b11U, 0x3de7150abd443b0dU, 0x3cb0c182bd6212caU, 0x3dd349f23b8b6a6fU,
  0xbd3ec74bbd4f9233U, 0x3de39334bdd5be25U, 0xbde0e1acbd607e40U, 0xbe25c1afbe485aa6U,
  0xbdea0fc93de4a48aU, 0x3ccd22253d4ea857U, 0xbd465bbc3d550ae9U, 0xbe042527bda385a2U,
  0xbc539186be1f7e82U, 0xbb693acd3d7aeb89U, 0x3d51cc6dbde4303dU, 0xbe04f6e5bd8c197aU,
  0x3e2e2edc3e531f0bU, 0x3d8edffb3ca6f6eaU, 0x3ccc2aac3e336251U, 0x3c5e81203dc2ac4bU,
  0xbdc297f13dd228b4U, 0x3d3f221abd7a9fceU, 0x3d6540a03e16bb0aU, 0xbd217b0f3cd240daU,
  0xbc52726ebe4cca71U, 0xbd5979923d896d26U, 0xbdc7ffccbe594fd2U, 0xbd5e908e3dba54fbU,
  0x3caf84693e265406U, 0x3c9ada70be4a3234U, 0xbd1dc5453d3602f2U, 0x3d3c88f2bdbb68acU,
  0x3e1cb5d3bd237bdeU, 0x3dbd05c4be0ff9efU, 0x3e4428ce3c6668b6U, 0xbe6319e73d2be67aU,
  0x3d8b06353e20ce1bU, 0x3c09aed9bd607b8fU, 0xbe07f10f3df6426cU, 0xbdbfc33a3d4593f9U,
  0xbcc54f16bc0edfe7U, 0xbd81d1863d8c931aU, 0x3daee930bca5b76eU, 0xbe4ea6febdcf4aa4U,
  0x3df7249cbe24c0a7U, 0x3d860c213d6dd80cU, 0xbb4b24bdbe17b01fU, 0xbd64d233be63bbe2U,
  0xbdf53e433d6884fcU, 0x3cb3deecbc921ecdU, 0xbe09c560bdc9b427U, 0xbe44b4db3d8d3fffU,
  0xbe1cde2d3e2592a7U, 0xbdb636133c23884cU, 0xbe1a286fbd156bedU, 0xbdbc6d5bbdd58a46U,
  0x3e243821bdaaf3a1U, 0x3f0f67a33e38aa56U, 0x3e64de9e3d493bd0U, 0xbe20c73fbe95508dU,
  0x3d3a6ff6be9ca260U, 0x3dae35063e898fd8U, 0xbcec19d43d171af9U, 0x3dbd4011be067102U,
  0x3ca1e4e33f09c88cU, 0x3c8fad51bdf5bc14U, 0x3b4d436bbdea512cU, 0x3b6025ecbda0accaU,
  0xbd2544b63e984b39U, 0xbe06c0cb3c2a4fd7U, 0x3ea3eae43d44d166U, 0x3d35b8123cdb39fbU,
  0xbe2fbc5f3e5d16d8U, 0x3d93f56c3da0b576U, 0x3e4ba4bcbe5f6275U, 0x3d8c5e823e78f941U,
  0x3d2e31ee3dcd5c57U, 0x3cb018103e13ab5eU, 0x3d32dfa43db2cf54U, 0x3a1c3dafbe51fc87U,
  0xbd23f02f3e190dc5U, 0x3e279bb93f1672d6U, 0x3e0166e6bcf77f8bU, 0x3de05e3c3cf28dedU,
  0x3e200903be8f7941U, 0xbe7830953d9dc891U, 0xbd35c7993cc21cbcU, 0x3ed6c53abe2ad161U,
  0xbd9388623e10a798U, 0x3d3bb8123e100d89U, 0xbeb847243d77f40cU, 0xbbe6560e3e7c7221U,
  0xbde14c6bbe8279f2U, 0xbe4f0db03dd63f93U, 0xbcc94af43e7f219aU, 0x3cb12d123c713840U,
  0xbdd0bc4f3dcb577fU, 0x3e6a21c5bd4e7dcaU, 0xbe1bd89ebd7b1a3cU, 0x3e54341c3dc320b9U,
  0x3e36f4a8bc5823deU, 0x3db6d6593e0d6dfeU, 0x3bccd0343e1d37d9U, 0xbdd1984ebe3a3ae0U,
  0x3db53e923e5854b2U, 0x3d90b4aabe445e7eU, 0xbe27aab93e2717f5U, 0x3e59927bbde9b868U,
  0x3e167c78bd6f8d35U, 0xbdd057f7bd08b353U, 0x3e8823fabdf0f09cU, 0xbdef3195bd359c19U,
  0x3d6b2f4f3de0764cU, 0xbd25d231be534050U, 0xbd3fb0b83eb4179dU, 0xbdc7145b3cd96716U,
  0xbe4b239fbc61844cU, 0xbe2889833e962387U, 0x3e802571bd9c11e7U, 0xbd1497e43e18691eU,
  0x3e91c5f73e3013deU, 0x3d9460cd3d644b8bU, 0xbd615a893e28068aU, 0x3e89abd4bdea97e9U,
  0xbe308eb1be2f435fU, 0xbdbab0f63e93b0f1U, 0x3c30f233bd0b96b4U, 0x3de3c19d3ea95a60U,
  0x3e2a60ae3d5b09a7U, 0xbdb8de813d5a1185U, 0xbd96c90e3e0ecdffU, 0x3e174a31be0f7629U,
  0x3de6f8e0bdcffab8U, 0x3dd735c7bcdab985U, 0x3df8cb4a3d94bf43U, 0x3de912043d5b3883U,
  0xbe6c87bb3e000b3fU, 0xbd181ebdbdf6add8U, 0xbdd223a3be6f6abeU, 0x3d8ac9c5bb06c9b9U,
  0x3b5d4d54be1c3e9eU, 0xbcd57928be1d80a8U, 0x3e3350b8bdce9a55U, 0x3d103782be5aeb11U,
  0x3dfd9e40bd889532U, 0xbe91357b3c3b0c9eU, 0xbce57a5a3e22e9d4U, 0xbdbbadbcbd04d3cbU,
  0xbca8199a3e215089U, 0xbdd33e693e0338baU, 0xbe70c4853c97fc72U, 0xbd0b03663d14b3afU,
  0x3d29210a3dccef53U, 0xbd3bed49bd3aa49bU, 0xbd2921063d9a5819U, 0x3d6069f0bd1d8d94U,
  0x3e3dd2f8be296471U, 0x3cd56d8abe24a0caU, 0xba9ea412bda20c66U, 0x3cf8a1583dd583d5U,
  0x3d01ed7a3d870862U, 0x3d28e1533dab8155U, 0xbcb15b2fbda1029aU, 0x3a77a2c83daf9cecU,
  0x3b9965273d7987acU, 0x3d952a4c3ca6252dU, 0xbc905961bd355899U, 0xbd8cac76bd68b613U,
  0x3da1be06bddaf8c5U, 0xbd76afc73d974e45U, 0x3c6a7a1d3d3ca127U, 0xbcbeeaf7be0f0570U,
  0xbd4d9f793daea7d0U, 0xbdf2f705bdc00435U, 0xbd6d2f23bcc88c72U, 0x3e04c04bbdb46149U,
  0x3e056d30bd97515dU, 0xbd3752d6bd95f113U, 0x3db1bfd03d57f9c5U, 0x3ddba014bdb33c13U,
  0x3d0ef7a83ccd7fd0U, 0xbd07dd1abd8e4da6U, 0xbd961ff0bd3402e9U, 0xbd91d8e43c8d1cd7U,
  0x3dd89049bdf26f98U, 0x3d8be55cbda9b51bU, 0xbca1a2003d9ca4fdU, 0x3d0b1a443de93920U,
  0x3d4454b03c5331d9U, 0xbd824682bd252771U, 0x3b6babfcbc8bf674U, 0xbdf748b53ca7d807U,
  0x3d803092bd95548eU, 0x3e01302c3d167071U, 0xbcd59cb73d85a1deU, 0x3c7ce6083dab2204U,
  0x3dd679713debcd41U, 0x3d5575a6bcd338f3U, 0x3b7254e5bd8ab175U, 0x3c6d4ade3e0e2189U,
  0x3cfbaf3ebdc1b9dcU, 0xbd6bf1acbafc3de0U, 0xbdcf67933d39bd05U, 0x3d2390fd3911a695U,
  0x3df75e403db1ccf8U, 0x3da8761cbd36ba5bU, 0xbe0fda533dd894d5U, 0xbdaf9d68bda50265U,
  0x3e169dde3dc61168U, 0xbd338476bdeb1a70U, 0x3c28a9b2b982ed64U, 0xba2977d738590fecU,
  0xbc9c20acbd97d584U, 0xbd31aea83d44290dU, 0xbdd2a8bfbd64e540U, 0x3cceccd83e0b1ad6U,
  0x3b804a373aa7a328U, 0x3de50f6a3d8ab502U, 0x3cd2b7283d101974U, 0xbd84aec9bdc51fa3U,
  0x3cb91e5cbdda621bU, 0xbd820db83dbfc49aU, 0x3dfdae4c3e093ac4U, 0xbb22df7fbc277f1eU,
  0xbd8a6577bd0a5069U, 0xbdf00f8e3c87a542U, 0x3d73273cbccf2346U, 0x3b67bb2d3caa8f0fU,
  0xbd8b433c3d8a5b95U, 0x3dc483763dffa919U, 0x3c27419bbdabda56U, 0xbdf60bbb3d2196d7U,
  0x3d41ac24bd0b5bb7U, 0x3cc8d14a3d90fdd0U, 0xbe15e105bc67d542U, 0x3d9ad4e83da73759U,
  0x3d0227463dd1b228U, 0x3cdede74bdeade7cU, 0xba4d747d3e16d19bU, 0x3cf6eebdbd9a0105U,
  0x3cf24e053d174980U, 0xbda69682bd5eba69U, 0xbd1752ab3c292a30U, 0x3c9c0911bd72ca8aU,
  0x3e0ed9c23dbdcf05U, 0x3c7435343dc8d0f3U, 0x3cb9ef643dcbfb0fU, 0x3d6a7eef3e0a795fU,
  0x3de413363df94c2dU, 0x3db2e59b3dde8865U, 0xbd3ee2e6bbe0982aU, 0xbde2a49ebe03ce79U,
  0x3e1453ed3d942c1dU, 0xbd41b1913df7bcd5U, 0x3d866148bb541dd4U, 0xbc8350a4be0c27b5U,
  0xbe1613153c12e98cU, 0xbdb0c7693df3bda7U, 0x3d856b5abc3ba2eeU, 0xbd44483ebd43cc72U,
  0x3d0666c53e08d500U, 0x3b3135abbdad4216U, 0xbdc250c63d7be75eU, 0xbdcd431abdac7241U,
  0xbe0200463e468bebU, 0x3e7f9ba83dee7cb7U, 0xbc3abfecbdcd4683U, 0xbe306f3f3e37a8a1U,
  0x3dd236a0beab46b6U, 0xbc325d343c039018U, 0x3d565655be4b9b0cU, 0x3da2701cbc21ad7fU,
  0x3cf776f43d0e3321U, 0x3e19e60ebd42fa17U, 0x3c1e2333bdecf25fU, 0xbdd62ced3e353853U,
  0x3daf4c2ebe22bee5U, 0x3d0a12a23bcb0bb6U, 0xbdb2e0f9bb9aef71U, 0xbddda70b3be83690U,
  0x3d74a7743e087457U, 0x3dc059c53d81ff3bU, 0xbe1ac04f3e43fe2fU, 0xbccac666be31f298U,
  0x3c8e444f3ce927d5U, 0x3d5b59013e0263f8U, 0xbe956745be15d23bU, 0x3d3bfdcabd8609f8U,
  0x3e6287a73e29a6fdU, 0xbe40e557be43b994U, 0x3df7f0843c157aa7U, 0xbe5c102ebe50e6c2U,
  0xbdef730e3e9a037aU, 0x3e515571be032e6dU, 0xbe92d1f2be48dab2U, 0xbdc238c33e6f9bc1U,
  0x3c409953be35afb1U, 0xbe2a4979bcb63644U, 0x3dc99aa9bdccf379U, 0xbe68b3a8bd05e477U,
  0xbdb8c664ba6631f1U, 0x3dd29f6b3e42cad0U, 0xbe0e6119bebfddcbU, 0xbdb2d1e63e136488U,
  0x3c7b2211be064bb6U, 0x3d3860a5bd37df17U, 0x3e5f831b3dc7af5dU, 0x3df7a4d7bd711caaU,
  0xbea292d93dc8dbf4U, 0x3e071afbbe8f3245U, 0xbde3256c3a8bac11U, 0x3e29339fbd85a217U,
  0x3c8727423c68f206U, 0x3cf782b43e17b731U, 0x3de24c443e7579e1U, 0x3dcfee7abeac83c5U,
  0x3d8867a83d09d7f5U, 0xbcbb69e0be2a3b68U, 0x3dcf9dd1bc9c8e17U, 0x3e063b233cda0d8dU,
  0x3e4df5a73df1c760U, 0xbe8aef6bbccec0f6U, 0x3cd164a8be13ea4fU, 0x3e08c047bd4a04edU,
  0x3e3eca3a3ddc9596U, 0xbd5d44713dc28bfeU, 0x3d802b2f3d5853a5U, 0x3d9eac223e14d18cU,
  0xbd23fc40be8fc60dU, 0xbda9cdb93d8ebc10U, 0x3c95f3e73c4ad975U, 0x3c3b8d253d3e129dU,
  0xbddd97b4bdb1d917U, 0x3e4a3ef83da2872eU, 0xbc056a023d228cedU, 0xbd5b7fae3dbb2a9cU,
  0x3c0cc216be6fe1a0U, 0xbc368c3d3c859535U, 0xbe638052bdfc8a24U, 0xbd719f20be03cedbU,
  0x3e5408cfbd2758c1U, 0x3d11b78a3db471f6U, 0xbe3496183dafcdd8U, 0xbd154e2f3d1dd918U,
  0x3d1f48c5bdf02d13U, 0xbdf28fecbe60f256U, 0x3d63733d3d3a2414U, 0xbddb563fbcff6a4bU,
  0xbd82fd11be6a331dU, 0x3dc24219bd7ce2a3U, 0xbc8411063de86f6bU, 0xbe792ed53e365825U,
  0xbdefc9b0bd0c4723U, 0xbe1c9122be56d2f9U, 0x3c9cb7013d1b4fa7U, 0x3dbec68c3df53ec2U,
  0xbc099b1b3dba518dU, 0x3e27ccc73cf0e3e7U, 0xbd8f2e8abe6bd667U, 0x3c745b13bd5b6d84U,
  0xbc59e420ba114e6fU, 0x3cbce05c3db19b77U, 0x3d678c6cbd4d17d0U, 0xbe213fe4bcad4c24U,
  0xbdf55ec7bd82a71fU, 0xbd82593fbde1eb86U, 0xbdb03c00bdf7e7bfU, 0xbe1a2cc03de1d793U,
  0xbe17a51c3cf23c55U, 0xbe85f02b3d6e1c08U, 0xbdbdd5f93e5c363eU, 0xbd4e2224bdc46480U,
  0xbe283017bcd3ec0dU, 0x3d136b81be9b7ab2U, 0x3db4ad2e3e5be20cU, 0xbb6402a0bb7cca87U,
  0x3e8d9f28beaa66f5U, 0xbda3fdf33d9e6c70U, 0xbdcdc17dbe082bcfU, 0xbeb4886a3e187a34U,
  0x3ace027abea841d5U, 0xbdfcfbd93d94bfd2U, 0xbccee5d8be8c6b41U, 0xbebb89ea3da947a8U,
  0x3e866cf23da474f0U, 0x3d81b96e3b17b5cdU, 0xbe5c3688be42a9d3U, 0xbd9b4c5abe841cc9U,
  0xbd1cead3bdfbca66U, 0x3e895ea73e956049U, 0x3dd03ebcbde0e23fU, 0xbe947e453e953d58U,
  0xbde1c564be691f80U, 0xbe8219a7bf024f39U, 0x3db35bfcbd903cd6U, 0x3defcd8d3ba5046aU,
  0xbbd1755a3de987a1U, 0x3e6f54933daa2174U, 0xbe9c0eabbeba1227U, 0xbe98745f3cf8d897U,
  0xbd34930cbe96b4d1U, 0xbdb717cabdbfa03cU, 0x3e6ba8a33ed15372U, 0x3e3506d93e59fee9U,
  0xbeb7d6323e6a267fU, 0x3e5ab41cbea80ab0U, 0xbebb9ea83d341a1fU, 0xbc260feebdbf6f7aU,
  0x3e9ad0f9bdcf12c3U, 0xbeb32c2cbe56dc5bU, 0x3dfa97143ca73732U, 0xbec5509abe11eacdU,
  0xbe81aff13d3a2ff4U, 0xbd16d12fbebb61bcU, 0xbd5b6cee3e28c03eU, 0x3e18eac43ec40a30U,
  0xbe1ede4a3c2c1d0aU, 0xbe96b8283e289274U, 0x3d089274be7d1a47U, 0xbd2457703d007abdU,
  0x3d811840bc85545dU, 0x3e8036803d8be6c3U, 0xbdc6b2673e769727U, 0x3c9d53acbe0ceb5bU,
  0xbd8de2fcbe6689cfU, 0xbe057bff3d9bfc5fU, 0x3d3f82843cfddfd0U, 0x3dbd460e3d192436U,
  0x3e384bd53e67b73fU, 0xbdd531d6bd9d7acfU, 0xbe977eaabcb99200U, 0x3d8915a23dd178c9U,
  0xbe013de7be3df1e2U, 0x3cf61a11bd9aa3dcU, 0x3e3c1e2ebd2f63f4U, 0xbd5d1e6b3de40927U,
  0x3dee2773bdeceb03U, 0x3d5e8a91be584b31U, 0xbd49d1073b108f56U, 0xbdb741c4be80b954U,
  0x3d4e100a3d7857abU, 0x3b0571043d88523aU, 0xbd9ed036bd970e8bU, 0xbc1e81383c772920U,
  0x3e149df23d223dafU, 0xbd65e04cbe16cd6eU, 0x3ccac8813d6a97ccU, 0xbc935e043e0cd85eU,
  0x3e1c53b2bd81b5b6U, 0x3e10eaaa3c80a8f3U, 0x3dc23e39bcd5c5ddU, 0xbe42ef61bccf939bU,
  0x3d91ace73ddcfb78U, 0x3aa15f3e3de3a806U, 0x3d7811183ca635a4U, 0xbdbf07c03e2e7841U,
  0xbd2512683d3a6af4U, 0xbdea96f53df69e92U, 0x3d179c81be871c62U, 0x3d7922bbbd84e064U,
  0x3d7c4f6d3db25f89U, 0xbdeae23f3e117771U, 0xbb82e239bd01b45bU, 0x3dbc57043da0bf4fU,
  0xbd67be25be1ee57cU, 0x3dc61f323e61e012U, 0x3d1145b93d904aebU, 0xbe3bc8a0bd6398baU,
  0xbe13c955bd4ff0e4U, 0xbd6808383d04b197U, 0x3e0a646dbd85a43aU, 0x3da9e4e93aa02fc2U,
  0x3de5c7063c88a1eeU, 0x3e923b903e04cdccU, 0xbe6bf80cbd87cf3aU, 0xbc8dcb4a3d73227fU,
  0x3de1e0da3d52a4eaU, 0x3e002c403e228f8dU, 0x3e3ae7cdbda2c713U, 0x39df231e3d8cb62aU,
  0xbe35e7a83df517b2U, 0x3e18913fbe0632dfU, 0x3db1c22e3d9efaceU, 0x3d6331633e81ca87U,
  0x3cb9d88c3d4565b4U, 0xbd35e83fbd12d746U, 0xbcc3f1fdbe220090U, 0xbe778348bd30fdf8U,
  0x3d73549f3e073c6aU, 0x3e71651c3e93975dU, 0x3de158e3bc3146e6U, 0x3e06e5d2be122bb1U,
  0x3b4e6b5fbe4575b5U, 0x3c8e9a6ebe3364e9U, 0x3e3d37bbbe16c380U, 0x3e56b0fa3af0bdaaU,
  0xbcac99273eafb101U, 0x3e28f32ebe1c5658U, 0xbe37e3cb3de02620U, 0xbe28ec8fbdefff3cU,
  0x3d3a5c8a3d0d4bf0U, 0x3dac29803e23bb05U, 0x3ed61cc13d4f404bU, 0xbe2e5070bd99bf23U,
  0x3c164c2bbc8b353fU, 0xbdb9eb5fbe297fa4U, 0x3d65a8dabddb01b4U, 0xbe0468ccbe03f36bU,
  0x3d1c6d4a3d8aa588U, 0xbdb563163e508579U, 0xbe66b35dbefd67adU, 0xbc82e2f2bca79451U,
  0x3dcbb0b0bc9fd533U, 0x3d65aa893e531056U, 0x3e0f1ca3bd4d5359U, 0x3d90de9abe23daf1U,
  0xbeaa15dcbe473e9bU, 0x3b84aac5bd405893U, 0x3d8d32343e1eb2ffU, 0x3e4191993d62b119U,
  0x3d905e92bdd8249dU, 0xbce23054bd6a8441U, 0xbdac233c3e4a3886U, 0x3d57da0ebee84777U,
  0xbd0723c1bb34d5c8U, 0x3d9524653d941bd1U, 0xbe2486163e933375U, 0x3e8d76633d180c6bU,
  0x3e4282d13db77204U, 0xbebc0df63d055f48U, 0xbd13a1d83d673beaU, 0xbc4f871f3ca2494dU,
  0x3dd90538bd3829beU, 0x3c5f0c9fbdee70a5U, 0x3a823d783d9b3207U, 0xbe2417553da243f5U,
  0xbdf2f59ebe143984U, 0xbc8ddc693dcf5e8dU, 0x3de331bbbc2a5508U, 0x3c04bbe03e3e7db5U,
  0xbd752455bdc39928U, 0x3e9a74673d25d47cU, 0xbea818ba3cc7167fU, 0xbc174e78bd9fcb94U,
  0x3d86b36c3c3262b4U, 0x3d40393f3e1f26ceU, 0xbe3dd7bc3cd1ffd9U, 0x3bf2f4343ddeb9c6U,
  0x3db5aae53d03b8faU, 0x3e06dee9be17e3c2U, 0xbcb87fd5bb254322U, 0x3cf603e23dcd816dU,
  0x3da6be843dbc7f2aU, 0xbc17efd53cbf13b5U, 0x3e58b1163ddaeec2U, 0xbe5fd5eabda2feaaU,
  0xbc21ab4cbe71683eU, 0x3d44cae4bdd83c9aU, 0xbe1ec0a73e5f94b4U, 0x3dc82e7ebcae400bU,
  0xbd6086be3d586d22U, 0x3d8ccc203e067ce8U, 0x3bde9c92bdd7fd08U, 0xbdf34624bc0b6994U,
  0x3d383b4e3d7d34d5U, 0x3cbf5c3c3d6a1e3dU, 0x3c5071f0bda377dbU, 0x3e2df71f3d730b32U,
  0x3d8e4b423e08aa7cU, 0x3e0a83593daa89ecU, 0x3d263f8d3d8c84ddU, 0xbe1a7807bd0d0025U,
  0x3ce9ac39bd4caf64U, 0xbd5ad5f0bdb2f9faU, 0x3ce667813e1e7365U, 0x3d66133a3dac13baU,
  0xbd28ca883da93124U, 0xbe3960b13b44f4f1U, 0xbcdf6d62bd8b1447U, 0x3e9bb496bd932cb1U,
  0xbe50b7b03e363295U, 0xbe07e06e3e5bcbe3U, 0x3dfe3b4c3e871f60U, 0xbdc8eb55bd8612e9U,
  0x3dd3ae1fbdaf36b9U, 0x3cc99ff13ddcb957U, 0x3e804f513e348cb1U, 0x3e4df198be423c92U,
  0x3e321d5c3e11c6d5U, 0xbe2821bf3d60f84cU, 0x3daf76b2be0208c9U, 0xbe1537513e4a23a4U,
  0x3d75ecfc3e0a4b4bU, 0x3d760b4b3dfc74c7U, 0xbbc44ce33e60936fU, 0x3dcc29a33ec23295U,
  0xbdef5e53bda13dd9U, 0xbdb597423d899efeU, 0x3e1b8f663df4b047U, 0xbd0121b13da20a07U,
  0x3e1bba1abe1e7922U, 0x3e4c74dbbd1563bbU, 0xbdb009233d9f7b3dU, 0x3d086f373d2fd08eU,
  0x3c2e49ef3d87f5ebU, 0x3e02254a3e2e7f6eU, 0xbdafe09f3d40ddefU, 0x3d586edf3e5dcef4U,
  0x3dd7f2803e0cbd94U, 0xbcc38e48bd3e7d6fU, 0xbd9d11d0bda88438U, 0x3da4bdd4be3d900bU,
  0xbe1e0f55be85e0f4U, 0xbe00f513be6f9185U, 0x3da56a4dbe3abe17U, 0xbd9099253d7c3b14U,
  0xbc0f98783e1f3a02U, 0xbc82ed72bd8b755fU, 0xbe6862f6bc4df670U, 0xbe01b26dbe28ffe7U,
  0xbc5eacdcbd687e74U, 0x3c3e261e3daf8927U, 0xbcfdf933bdb38ffaU, 0xbd98234e3d180f74U,
  0xbd3f40fe3ddf0617U, 0xbe167fcabde94eafU, 0xbd28126abe55b59dU, 0xbc7cd6ec3c56a5e8U,
  0xbca69a92bd125beeU, 0x3db6d1683d4e5da8U, 0x3de2c3d1bd9d7da2U, 0xbd424ec7bde57475U,
  0xbdb76c7b3d7911a4U, 0x3d92673f3d5f24bfU, 0x3d06c717bdd48163U, 0xbda72487bd974ec6U,
  0xbd8f5791bd9dff95U, 0x3dc52b24bc313d6eU, 0x3ddf84043dc3ef22U, 0x3de3b0a3bdd59c83U,
  0xbe529d6e3e0b31d0U, 0x3d731862bdb270a3U, 0xbe0cdf103d91a0d6U, 0xbdd1299b3c4c17ecU,
  0xbe2f01ec3da2bb5eU, 0x3d6117293bd1501aU, 0x3e18c422bdca513cU, 0x3ce568f43d5441feU,
  0xbd417076bd027294U, 0xbe3ebacd3e273ed9U, 0xbdad9915bd90c442U, 0xbd4e91613d75ab9cU,
  0x3da07db73d060e57U, 0xbd3eb381bbeb4d2fU, 0x3d9379483d3307c2U, 0xbd8fa1283dc8cfafU,
  0xbd8922fbbd06a268U, 0x3de98bcbbdba3c6cU, 0x3c7de5d7bcc8a639U, 0xbbd45708bdb370e8U,
  0xbd6f0246bcf91d61U, 0xbd90afbcbd957f75U, 0xbd335e31bcb785efU, 0x3ca2c14c3d4ce35dU,
  0x3d6a4fdbbe001074U, 0x3d56a8d03e175f0aU, 0x3d8225f9be018209U, 0x3cebadd83d854fb2U,
  0x3d8e2e3abdcd481aU, 0x3dc4ac36bd258118U, 0xbdd0c36c3dae70faU, 0xbe0de8f0be03d83cU,
  0xbd17fbdfbc89dfa1U, 0x3d3423673d5a9759U, 0xbcdcaea13b99de7eU, 0x3e0942123c1db48eU,
  0xbd13fb8d3d4a8726U, 0x3e11f2a3bdc89264U, 0xbe059bdd3d60054cU, 0xbdad098d3d955501U,
  0x3e04b3993d83b6b0U, 0xbdf45faf3d734948U, 0x3aa629803d95266aU, 0xbd070c86bd5e75f6U,
  0x3d82b3e8bd9f698aU, 0x3d6008983d8f2a4eU, 0x3e0e36673dbaf9fcU, 0xbd33a3283d086868U,
  0xbd40e5b43cbf6370U, 0x3dbfc64e3ddb9dd0U, 0x3d65be58bdbf57b2U, 0xbdc7d0eb3de19250U,
  0x3dcf405c3d971d00U, 0xbc367b40b9fd8800U, 0xbd240e36be091356U, 0x3cd9dd70bbb36240U,
  0xbd247cc0bc3ae9f0U, 0x3dd486ea3d82b520U, 0xbd0bd7aebdcc6b00U, 0xbd676c8abda898b1U,
  0x3d9622ecbcf632e4U, 0xbd5b08aebdd54277U, 0x3dd4ef863b719d80U, 0x3e04881d3dadf710U,
  0xbcc642d43db14f72U, 0x3dcc37143b283000U, 0xbc6c3f303d9e1dcaU, 0xbd081e443dbd7cfaU,
  0xbde351fe3e02427dU, 0xbce8365c3d8858fcU, 0xbb389b40bd8d96c9U, 0x3dc0ba943de708a2U,
  0x3df83c3a3ded4a06U, 0x3ddcdc863d94fda0U, 0xba9c5f80bdcb01a5U, 0x3d9ef2febdfc4276U,
  0xbca2175cbcc2f0f8U, 0x3d212898bbc2b4c0U, 0xbd3331843d4974b8U, 0xbd851132bd994624U,
  0x3dbbe998bd8d7daeU, 0x3dabb7803dcfa484U, 0xbd9d8c72bdfd0aa0U, 0xbd061f38bd01e920U,
  0x3d6c8dbc3de1a156U, 0xbdf869c73e01b747U, 0xbdc81b04bd75cb52U, 0xbda176d6bd6c3f5eU,
  0xbd771f6cbcf97830U, 0x3d57bb24bdc41e87U, 0xbdad86c2bc9ff514U, 0x3de8f8de3e066b5bU,
  0xbd2951a43caf4410U, 0x3c868618bd1f7dfcU, 0x3d2fef403d5f6f24U, 0xbd154e123dd13718U,
  0x3d857c1c3d21d96cU, 0xbe0e507b3da56e16U, 0x3deec65a3d4ecf30U, 0xbd7d7b4cbcdd67c0U,
  0xbd76b79ebd0696d4U, 0xbc9d14e8bdd9d386U, 0xbd4739583d699b58U, 0xbdc55951bd039b8cU,
  0x3df38b623da6c326U, 0x3c398080bd632c26U, 0xbdf3dbc53d0ea714U, 0xbbf0cae0bd90b3bfU,
  0xbdda8dd2bd854866U, 0x3c50b4b0bcf21158U, 0x3d9f649a3e0abddfU, 0x3db37314bdd1fd19U,
  0x3d50def8bd40a084U, 0xbcc2199c3dc6dc7eU, 0x3e04320f3df07856U, 0xbd20d9363c6fb460U,
  0xbdbd86803d862e8eU, 0x3de046fcbd8a800eU, 0xbdc8f442bcccd560U, 0xbd3edcb8bcb68174U,
  0xbd6ecf383da25c0cU, 0x3de01d2ebdf50189U, 0x3dba3cb4bdbabed2U, 0x3db5eaa0bd88a7a7U,
  0x3d8561b2bc85000cU, 0x3dec09c23da3b61aU, 0x3ccf20c03e08792fU, 0xbbb8b2803d8f0a92U,
  0x3d84802a3d308b54U, 0x3daa38cabe0d9e2fU, 0xbdcce4063c70f640U, 0xbad051003d838df4U,
  0x3d0206b83d7c97a8U, 0x3d90e7f2bd08c8aeU, 0xbdea6f2b3dc14934U, 0x3dba7f70bdb7b3f8U,
  0x3dbdefd8bddc5980U, 0x3d0adeb83cc51f68U, 0x3d2c91c8be0182d3U, 0x3df002aebd97f89eU,
  0x3bea2380bdaca118U, 0xbdc8aeae3e01cef5U, 0xba9ce8003d984914U, 0x3d679abcbd8056c5U,
  0xbd9bb808bd53f9d1U, 0xbdd8e3b33dd26743U, 0x3e6241cc3e731d04U, 0xbe5da3d6bdeb29e6U,
  0x3d987259be0227d6U, 0xbe39956abe4e6067U, 0xbd97312f3e61b703U, 0xbd0bdf8abd597044U,
  0x3e8fd9da3e8af1d5U, 0xbe223ec03dc3fdd4U, 0xbe980f3fbdd17a8fU, 0xbe94d4a43e223705U,
  0x3e833d72befb4fe6U, 0xbd589643bd4e4caaU, 0x3e6dbea93c224aceU, 0xbdb7a6c3bd717305U,
  0xbcbc9d0bbe26008dU, 0xbed90f2abe70df64U, 0xbefd535cbe3ca4f1U, 0x3e1e47a1be08318aU,
  0xbab628203c1faf65U, 0xbe5eaeb23ed68bb6U, 0xbcb7877dbe6a4000U, 0xbe6549ce3e75c271U,
  0x3d6178e1bebf3683U, 0xbe7d280bbed2bf85U, 0x3d9abb8a3cf65074U, 0x3e90fa9c3d24b388U,
  0xbdc077b63d72262cU, 0x3d39cff33c6ab2dbU, 0xbe8750e7be650497U, 0xbedc11f1bcbf9d81U,
  0x3dba1469bdaf5f63U, 0xbe71626dbdd8416cU, 0x3ce979e53ec6d9e1U, 0x3e649f363e1c3009U,
  0xbe10528f3dd2eb22U, 0x3e56bbbebe8878aaU, 0x3dffae5bbdf36de3U, 0xbe24df613c96626fU,
  0x3e562593be45f2e5U, 0xbcd1f6beba06bfd7U, 0x3e4846633e38efbaU, 0xbe9323b93dc963a3U,
  0xbe865671bca0c758U, 0x3d0b95153d3ba92cU, 0x3d134660bd8f38bbU, 0x3e3d1fa03d0820b2U,
  0xbd0f8147be08807bU, 0x3e6993ee3e2b3f49U, 0xbd99d460bd59268aU, 0x3eb7fb40bcad7d3bU,
  0xbe46c7e23e2ab64fU, 0xbd5416143ddb6442U, 0xbe0415413e5b5979U, 0xbd35d700bd2afdb8U,
  0xbdd091ef3e28c27eU, 0x3e1b8b8c3e6c4351U, 0xbcbfd9b63da6360fU, 0x3db6bb3cbdbd2246U,
  0x3da5f8b63dda2040U, 0x3d4f12a0bd759d11U, 0xbe9a5b08bdcc5f72U, 0xbde14982be108518U,
  0xbd9e690ebd2a4cf3U, 0x3a47bc83bdba4a75U, 0x3ea07ab6bd5b77c9U, 0xbde97c9c3e81ee08U,
  0xbdf3a4fa3cb96a72U, 0x3dd8327ebe081bbdU, 0xbe20ab13bc89dfdcU, 0xbdcbc7dfbd74ee5eU,
  0xbe56c22fbe0eca62U, 0xbd349f103da55abcU, 0x3c49426c3d1550f2U, 0xbe49768ebda06a46U,
  0x3d3cf181be019e27U, 0xbd95959cbe2df59cU, 0x3b39c7fa3da414c0U, 0xbc4564073bbb1c2aU,
  0xbd72c6223db4184fU, 0xbe3d09c3ba87ce51U, 0xbe45e15ebe35f789U, 0xbd4efff4bd1cebbeU,
  0x3d1153813d972138U, 0x3e0a1a983e1612ddU, 0xbb5095083d998dd8U, 0x3e234773bde355fcU,
  0x3e38cb813d07d725U, 0xbdce9258bd88eae4U, 0xbd887a8c3d9654eaU, 0x3e8bcbffbd1135c9U,
  0x3e1e7ea53d99c47eU, 0x3dd544ce3da44feaU, 0xbd551e4c3c0db515U, 0x3d82d717be186f7cU,
  0xbe364a673e6a0568U, 0xbdc5d4473c23dfcfU, 0x3e20766dbd394a9bU, 0x3e1625a83e4ddae6U,
  0x3d096c193e017568U, 0x3dfd25263e04882bU, 0x3e19ce7f3dc1e2d6U, 0xbe32097b3d8963baU,
  0xbe1db246bd8fe99bU, 0xbc956424be908c5dU, 0x3e292806bcaf4441U, 0x3ea844f9be99784fU,
  0x3e5bd9e13d103719U, 0xbec7d15b3eaaa0b3U, 0xbd86ed753e55651fU, 0xbe62252dbd09ab4bU,
  0x3db273cb3e364c82U, 0xbe4ae8163da5d230U, 0xbdce39bc3d4987f0U, 0x3e5136173d8adc8aU,
  0x3d112ff2be356183U, 0xbe4a8d37bd5425c8U, 0x3e7202b5be304b94U, 0x3d66d0353d1f8cffU,
  0x3dfdd92f3c10f9f0U, 0xbddaba6ebe42fabeU, 0x3d4abff73e1cf1dfU, 0xbd26be7abcaba7c6U,
  0xbe13096cbddb44dbU, 0xbd9acda4bca61375U, 0x3e17bbbf3c800feeU, 0x3d9b9a2ebd50e110U,
  0xbca43b54be272903U, 0x3d2206cc3d7513bdU, 0xbe761e053e2f3683U, 0x3c5ec1fa3e47f8ccU,
  0xba8fd2b3bd74f05fU, 0x3d1101883dcd82e0U, 0x3cbc1ebf3d8b5ce0U, 0x3e267598bd2ccfc6U,
  0x3c90c2b3bd889bf0U, 0x3e2bb202bd1fb564U, 0xbd93389a3e05faf5U, 0xbdaaea273e3bc4d4U,
  0x3d5ec084be6480f9U, 0xbd4a12403cf3fa07U, 0x3ce150813e518ab0U, 0xbd445f133e1fb24cU,
  0x3eb88cc23e0cd37fU, 0xbd698fa3bc709366U, 0xbde8bc093d52b2b4U, 0xbe533d7cbe43f139U,
  0xbe0fcc07be8b1a9aU, 0x3cdcf74a3cf39918U, 0x3e6d90ffbdda3a02U, 0xbe0c21e23e1cc87aU,
  0x3e274c683d2f84c8U, 0x3cb6f08cbe0616f7U, 0xbe6c079bbe88d897U, 0xbd6b92ce3e4412e7U,
  0xbe1b8736bc6a3228U, 0x3e8738343e5577a9U, 0x3db55083be4a94caU, 0xbe61408cbd91fc92U,
  0xbd87f933be1aab47U, 0x3ea10927be8033dbU, 0xbd2fb9b7be27e3a9U, 0x3e21af3cbe5b4a81U,
  0x3d0ba3363e7df25eU, 0x3bb3d4f23e46d998U, 0xbdd16978be32ad62U, 0xbd4ca6dcbe6ba133U,
  0x3e1468c63e8c9b2cU, 0xbd814ed53e0565edU, 0x3cb73677bdb0d052U, 0xbd912463bda9fd9aU,
  0x3d421afe3d3627c9U, 0xbeb11aaabd050322U, 0x3c36d6afbda1c8e4U, 0x3d9e727cbdfe77eeU,
  0x3d52052abd21dcb5U, 0xbe712c403e65bd08U, 0x3e0448b23e4718e0U, 0xbd4c02da3e5e4f80U,
  0x3e2ea56bbd4fa673U, 0x3b85929fbcde5a27U, 0xbcdb342e3e1b2320U, 0x3dc9bb86bd8fc2e4U,
  0x3c93f987bde72debU, 0xbc967d9bbd8d7adaU, 0x3d3aab8dbdc7237aU, 0x3da484703db9ba52U,
  0xbdaab0873e3ba688U, 0x3bd3c60c3e166914U, 0xbe05393bbddaf086U, 0xbded1f4e3d548da2U,
  0xbce24b21bdb6f7feU, 0x3c35ba9ebcdb7c26U, 0x3e402a5a3d7346afU, 0x3d98e64fbdb94e0aU,
  0x3e14d96abdee6fd7U, 0x3c8cbb4fbcb19308U, 0xbc29ada6bdb490b0U, 0x3d8ae5193e055bafU,
  0x3ddc32e53d9e4fdeU, 0x3d577789bd12ec1fU, 0xbdfc7112bd1eb6a3U, 0x3d882f38be525244U,
  0x3d4de0f5bd906b2dU, 0x3d6e6c53bdeddbcdU, 0xbdabb73dbdf8dfc0U, 0x3d3ad9c7bc80fe1dU,
  0x3e15b0d33ddffe90U, 0x3e702d9b3d2f3a32U, 0x3c460d413d12d28eU, 0x3ca9b3dc3d61690aU,
  0x3e7a2ea0bd8d9050U, 0x3c357f323c5b61ecU, 0x3c6c578c3bacd1a4U, 0x3dc14fd53cdc6630U,
  0x3e2d515b3e4a4f2fU, 0xbda067e6be91cbddU, 0xbcdc4cd7bd804edcU, 0xbe54ce403e76d398U,
  0xbdbbd97d3cd9f805U, 0xbe2536233e10a8b5U, 0xbd64dc11be41f7dfU, 0xbd97bc00bb33c1dfU,
  0x3ec6bb15bb99c86fU, 0x3e1f7948bdc8dbcaU, 0xbe4775293dbbaf95U, 0xbcff2da73d887abcU,
  0xbe830697bc1d5696U, 0xbd53f9a0bd230ab8U, 0xbda70cbbbe08fe5dU, 0xbd6aa5e83e36dc6aU,
  0x3ea484673ea1412fU, 0xbda8bdf3bea13519U, 0xbc590ebd3e0662a4U, 0x3a38370abe79d3b6U,
  0xbd8effc43de5d312U, 0x3ed6421ebdd040eeU, 0x3dc7d791be506977U, 0xbead123c3e2be8c1U,
  0x3dbbc456bdb8744aU, 0x3da891b93e1b310bU, 0x3e78f7863e27bfabU, 0xbe91e45dbdb14c18U,
  0xbe43a88d3e349429U, 0xbd5d6ea63e072123U, 0xbdd86f99bee1a0faU, 0x3e3cbfabbd5cfde3U,
  0x3e5fff0fbdb6e5c0U, 0x3dabcdf83e317d82U, 0x3e6ecc47be2fdfd5U, 0x3e2c177ab8075096U,
  0xbeddf8cf3db8e164U, 0x3bf341d0be04698eU, 0x3dba17cabd8c401dU, 0x3e7c08243e0f84b9U,
  0xbe9f315b3e9b8f8aU, 0xbd8b89943e774478U, 0xbe7cb3c2bce79bc6U, 0xbd984ab3bd95a062U,
  0x3de39404bd6b5c1fU, 0xbda2200b3d1f4b1cU, 0x3d9599d93c1eed75U, 0xbd138585bda80628U,
  0x3defb7fe3dcb6dd8U, 0x3dce71373c8fbee3U, 0x3bf8effebe458ce1U, 0x3d8bdb64bdc8d7f6U,
  0x3e6611fcbe197eacU, 0x3d5b78ba3de97299U, 0x3e411e59bca6729aU, 0x3cd29d4fbd8224a9U,
  0xbe3e02bcbe0ce6b1U, 0xbddc69593d951f71U, 0xbe86e980be655b99U, 0xbce9eefe3d157da7U,
  0xbe8779da3d32e985U, 0x3db762463da5f5b8U, 0x3d4ebb25be4825d3U, 0x3d8ff69cbce97d98U,
  0xbd31d08cbe014a10U, 0x3da22748bdb9bb7cU, 0xbe5f52353d72eeb8U, 0xbd05ed29bb9a923bU,
  0x3cf0fdaf3c69fd1fU, 0xbe54ced73d834da3U, 0xbdd4039bbdbb2ea2U, 0xbdbeb4c6bdcab79eU,
  0x3ce4c4983d5dc668U, 0xbdcf8914bc8d9999U, 0xbdca70aebd15c600U, 0xbe0dd801bcf13144U,
  0x3da12a9dbe995cfeU, 0xbd000455be4d46deU, 0x3d5557b13d86232aU, 0xbde05b973e601901U,
  0xbd3daec03d82eaa0U, 0xbc882b743d8c7f64U, 0xbda4293a3dc24549U, 0x3d72dee0bd96c534U,
  0xbd87fdb03cd38cddU, 0x3d1f0377be2c865dU, 0x3d0dcbb3bdf40faeU, 0xbb41b2763cf7d850U,
  0x3ad4f188bc488353U, 0x3e3709eb3cdca29aU, 0x3e0e4776be0c2837U, 0x3c5bd566bd59b7a5U,
  0xbc05509d3d261127U, 0xbd6735233cd63ec9U, 0xbb049540bd9e0de2U, 0xbe41f315bdcd6d99U,
  0xbbb980c0bd8229e7U, 0xbe0762323cd61c88U, 0x3d7703043bb57600U, 0x3d6293e83dd0e9beU,
  0xbda2b7f13df2afc2U, 0xbd91c8f9bbc797a0U, 0x3db6b1963dad308aU, 0xbbd2bf40bb8dcca0U,
  0xbb970060bd80b3e2U, 0x3d259e5cbdc62d66U, 0x3d49b32c3dfa9bfaU, 0xbd313bae3d5f1b88U,
  0x3de9ad9e3cc97930U, 0xbd0d00a8be010810U, 0xbdeea421bc1ee220U, 0x3df8af9e3d6fb314U,
  0x3deb0d4a3dc33686U, 0x3affec803dd87244U, 0xbdfbeeb3bd50a164U, 0x3e00a5233dd89908U,
  0x3a93af80bbafbea0U, 0x3db2c1d23c533ac0U, 0x3de49576bab3a480U, 0xbe03b33c3d7f61fcU,
  0x3dcce060bc275270U, 0xbd2f1a56bcb9cb00U, 0xbc95e830bce7b554U, 0xbb6a18003e097005U,
  0x3cdd4ef8bdb27baaU, 0x3de4b64e3dc17c06U, 0x3df91a52bd8e180cU, 0x3de1b80cbcfcfd20U,
  0xbc059d80bcdeed28U, 0x3d76c4983cb3b7e0U, 0xbd016df43dee2a7eU, 0xbdc43b12bdac8c8fU,
  0xbd78cf32bccbf968U, 0x3e01e06db9d2ca00U, 0xbd5b80f43c04ff10U, 0xbd91a0cb3ce03af0U,
  0x3dd19f8cbcacaaa8U, 0xbd24a1d83df79d62U, 0x3d0269d0bc9358d4U, 0xbd8a3b433ddc07ccU,
  0xba18f0003de91b4aU, 0xbdc29c62bd04e628U, 0xbd6c2d8a3bee5500U, 0x3d06bdfc3d75cc18U,
  0xbe044a263c2e2600U, 0xbd357ee43dc70856U, 0x3dc436de3d6572b8U, 0x3de907863c97fc08U,
  0xbdf189473d861708U, 0x3d8c18c6bb1847c0U, 0xbd00589ebdaf6b84U, 0x3c9739a0be0cdeceU,
  0x3d9a2678bdf4c136U, 0x3dab28e4bdaa2daaU, 0x3cbcd7483bd66a00U, 0xbd4ad4323dc9f6c8U,
  0xbd9de7963dadafa4U, 0xbdea1738bd361c28U, 0xbcd78fe0bd6f5ea2U, 0x3d13f71cbd6e366cU,
  0x3deaabb63c1092a0U, 0xbd6b28703d9e2b5eU, 0x3d9df452bd55e210U, 0x3dc829b4bc9e5f8cU,
  0x3d3923743dc74222U, 0xbe061728bdfbb568U, 0xbdd01c913df73e82U, 0x3dbf5fc63d57edd0U,
  0x3d7fa0c4bce78680U, 0x3d3f99243b941dc0U, 0xbdf87d82bdf5bcd3U, 0xbd4d72aa3dbf5ddaU,
  0x3e08fb87bca3894cU, 0xbd76ee9cbd325e56U, 0xbdc850983c1de940U, 0x3d9e3596bd26ab9aU,
  0xbda9ea8c3c5a3a30U, 0x3d6284a03d0175c4U, 0xbe021637bde1d54aU, 0x3dd1c4103db217e4U,
  0x3e0d9a453d2c0ef4U, 0xbc637f103c6be280U, 0xbc0fa4403c64c6f0U, 0x3de291eabde7fc55U,
  0xbd64406e3ddb58d8U, 0xbe0a5a4fbd1afef8U, 0xbdc6af06bccbbb70U, 0x3c48a7a0bd160592U,
  0x3d4a837c3d36b454U, 0xbd8c7c08bdb391b2U, 0xbdbe29e8bd971fdcU, 0x3daae8ac3e0d1079U,
  0x3dd0f80cbd916bc6U, 0x3d62a5d03d14db20U, 0xbd34c6583c767810U, 0xbd91ef06bd8b5b69U,
  0x3b87f3803d92e342U, 0x3e0a24593de6cacaU, 0x3d1ad0bcbda73632U, 0x3cc19c30bc659d90U,
  0x3e404bea3cc3d1a6U, 0xbe526326be07551fU, 0xbe24bcafbed5ea0bU, 0x3e6879813e15dc69U,
  0x3ec02ede3df7d84eU, 0x3de1cda83dce54b1U, 0xbe054a433dd7bd66U, 0x3e0d611f3e79432cU,
  0xbe3d2fa3bf046745U, 0xbe0b595cbe07e318U, 0x3d3e55053e85b2ffU, 0x3d29187d3ef7c6f9U,
  0xbd963e243e581967U, 0xba6db523bd2a4deaU, 0xbed4129a3db583b3U, 0xbe9e7bf7be34998aU,
  0x3e13a4c9be73f211U, 0x3ecf833ebdd3ad5fU, 0x3e1d09423ec13eedU, 0x3e04b42cbbb61341U,
  0xbc8ebaf8be2250f8U, 0xbe2ad8e2be8273fbU, 0xbd295618be851b90U, 0xbe0757eebd78e914U,
  0x3eb3bbab3e8a4250U, 0x3e1c80d0be2fa36dU, 0x3d0eb8a9bdad9310U, 0xbdfa6b12bde3b5b3U,
  0xbebb94a43cc26d37U, 0x3d292694be983e20U, 0x3e1b088abeba1440U, 0xbe5aa51c3e2e46cbU,
  0xbcc822f0bdbd114fU, 0x3e147cd3bc4699a3U, 0x3e80c9af3c4858d2U, 0xbe22d972be2bef1cU,
  0xbe8f20393e97f948U, 0x3cf44fa13e3a16a4U, 0xbda60219be1190b2U, 0xbd4633bf3cf23b51U,
  0xbe272072bd29dfcfU, 0xbe99594b3e431038U, 0x3e2824ac3cbced1aU, 0x3e8f4ee1be4a2614U,
  0x3d93e8633d6528d3U, 0xbc7072ebbe4d583dU, 0xbd970e443ddfd95eU, 0xbd03e62a3e2372b2U,
  0xbe8003e83db15e1eU, 0x3dbeecf9bc85fc75U, 0x3d928a33be0082f7U, 0xbe5012873bbd94fcU,
  0xbd2cd139bcced73bU, 0xbcb779a83ce61f8dU, 0x3a8937e03e406d4cU, 0xbcbadb713d18a325U,
  0x3dabebd7be3f311dU, 0x3d8bb648b95b1fdeU, 0x3c0a6e77bcafc3b8U, 0x3dea151f3df1d450U,
  0x3dce9a3fbe61cc0bU, 0xbdded071bd952b81U, 0xbd5eea6e3c2639ecU, 0xbd7411b93e5f6afaU,
  0xbd328e16be231b82U, 0xbe2dbc3c3d45b206U, 0xbe61bba0bd8f2884U, 0x3e2be8043d57a75fU,
  0x3dd664e4bd65c6b9U, 0x3e32d694bcb0e0e4U, 0x3dbc1d6d3dd80110U, 0xbd0807b43c00b7a1U,
  0x3e55db06bd53eeceU, 0x3e18d548bd440411U, 0xbe83e0153d9116cfU, 0x3dac776e3ccbb6e7U,
  0xbe2f6aae3e70f149U, 0x3e91066fbda45f9fU, 0x3c88f2823aafb238U, 0xbdbd78e63d114dbcU,
  0xbc40c4f83cd2d07fU, 0x3e07b3473d423ca7U, 0x3dab77273d9d9118U, 0xbe32bcd4be617d2eU,
  0xbd45b3173def1a0fU, 0x3da398ebbd765e01U, 0x3d0fc8c9bdfeb68fU, 0x3c8bc3cfbd034705U,
  0x3c6491a03dd98bc0U, 0xbd6a0afcbd11453cU, 0x3e06537dbe525ea0U, 0xbe572c133d84be96U,
  0xbe4506293dbbb058U, 0xbe84df5d3d843faeU, 0xbcfe280cbd4ca9f2U, 0x3dd3b6173da8f799U,
  0xbe0a20cdbce8e990U, 0xbd15b70a3e74e990U, 0x3e147dfcbd5fabfaU, 0x3e01a1353d82f056U,
  0xbe406235bd9013cbU, 0xbd22dc7d3d23f439U, 0xbd838fa93d85d0e3U, 0x3e313229bd6eb91fU,
  0x3e6fe696bba126e9U, 0x3e2e83323e413368U, 0x3ed9d6b73d6d8051U, 0xbd5f8724bd2b58b0U,
  0xbe78c5af3d352c42U, 0x3deb4240bd17c0deU, 0x3dacd649bf3a6b50U, 0x3c9275693e5810b7U,
  0xbda74c203d35849eU, 0xbe72668c3e0992fdU, 0x3e3220c13de77236U, 0x3e14b43abeced2c4U,
  0xbe85af4bbe2b3f18U, 0xbcc3be123d43141cU, 0x3e67c780bed31eb6U, 0x3e697b0cbdccbf58U,
  0x3dffb4963cb0f2f1U, 0xbec1d5e53e293b86U, 0xbe165270bd9cbc28U, 0x3dfeb43bbdde885eU,
  0xbee2efa4bd8f4308U, 0xbcd385f4bd849b6bU, 0x3ea228f2bc664407U, 0x3e123b713eb9b57cU,
  0xbe7cb15f3e8eb621U, 0xbd3f616ebd66e47aU, 0xbe3d8df9bd770bfaU, 0x3bb4a50dbec30c58U,
  0xbe030224bd89f43fU, 0x3e816dcc3ec71bdaU, 0x3f52be093e98bfe0U, 0x3c03446dbe532e99U,
  0x3da979943e1a6d38U, 0xbd017d4dbe3a44c0U, 0x3d2433a6be96b12dU, 0x3e93c1023e77ffe0U,
  0x3ecb6257bce345bfU, 0x3da47b4f3eba6cb7U, 0xbdacf1da3e2d9506U, 0xbd4f0be8bcdf2567U,
  0xbd8340cebdb9d02aU, 0x3db1bf04bd5f87b6U, 0xbdc8a6fdbd403b5cU, 0x3dcb855c3d0502ffU,
  0xbd62ac4e3d84b747U, 0x3d087d913e0feec0U, 0xbc8bbedcbccc5433U, 0x3e0d598bbda4aa7eU,
  0x3d3ab8323cfb5976U, 0x3e64f5943e1f41c1U, 0xbe758f7d3e1bfae6U, 0x3e04e1c3be3fa3daU,
  0xbe1903c63c4bca5cU, 0xbe1e153d3d0861fbU, 0xbd5b188abdfc32d8U, 0x3e0f2b43bdc58706U,
  0x3d9118153d5d33d3U, 0xbe1ea516bc52db6dU, 0xbdeba62a3e8c96d4U, 0x3e12612f3dd67d6fU,
  0x3d171fe13dcf186eU, 0xbd20578a3d97de04U, 0xbe9b1f6a3beb4a89U, 0xbc2569483ceccfa2U,
  0xbd4805d3bd08fc48U, 0x3e812c733d4fd3e3U, 0x3da6f7553d5fd985U, 0x3cdb4a6d3e01548aU,
  0x3d818d75be09694dU, 0x3d68338bbe4f1d55U, 0xbe75fdd13dadc66bU, 0xbdecc8e8bd85bb01U,
  0x3dfd10943df60c2cU, 0xbe2754b03e04429cU, 0xbe1a22f33db5f6f8U, 0xbe0dbb0abdfa47feU,
  0x3d9dcb2ebda2efb5U, 0x3cc4bc61bd523365U, 0x3ddd705fbd0a4e20U, 0x3e2811153c9a6a7cU,
  0x3e3576583c67f2b1U, 0x3d8c9e24bd375b7cU, 0xbd6d67c4be5e9f55U, 0xbd534b623daf0eb6U,
  0xbb24192dbe5b19bcU, 0x3e0d33213d9848e4U, 0xbddc1c3c3d22593dU, 0x3e052d4b3e3e589cU,
  0x3d545886bd890137U, 0x3be72d3c3d8cf711U, 0xbeacf5c73e131824U, 0x3b90199abcf30af8U,
  0xbd8a35123d7977d9U, 0x3d952fe4bce22249U, 0xbd9c331abc8c41e4U, 0x3d9f81243e22afc9U,
  0x3e257c723de4bd81U, 0x3d26c6a63d51d62eU, 0xbc8b0b7ebe21d8b5U, 0xbe61cc8e3d6d87a9U,
  0xbe17e77ebd463f10U, 0xbd2290b0bd714938U, 0x3e0349863e121836U, 0x3d55a1fdbda35469U,
  0x3df75dfa3dc0bb46U, 0xbcf80008bc357060U, 0x3de2ce663b5c1c40U, 0x3e0defcd3d320894U,
  0x3df1d4a6bc293380U, 0xbd112ba0bda3e788U, 0x3da3fa603b066f40U, 0xbd84f7dd3e0b4aa3U,
  0xbde38a30bcbc46c0U, 0x3dd3fb5cbd342b3eU, 0x3dc19344bdbd1ef9U, 0x3e08b4493d182380U,
  0x3bd7b820bdd2b776U, 0xbc6873803d989a78U, 0xbc34e8b03d85cb20U, 0x3d56035c3d268d2cU,
  0xbd4b5f123a0fc000U, 0x3d8d96c43e0a1e49U, 0x3ce59b103c727990U, 0x3e0c10bdbd45dee4U,
  0xbc5d6ad0be0a2abeU, 0x3c4c1a703cbee840U, 0x3cc104c0bd8a627cU, 0x3d329b9cbcaa3724U,
  0xbdd549ac3ca0cab0U, 0x3c37df903d591760U, 0x3e005155bd862ac0U, 0xbdd330743dff92d6U,
  0xbd81e2c6bdb70002U, 0xbca16a943e054207U, 0x3d71e7f43dda28c4U, 0x3df80b9e3d71e32cU,
  0x3d5a52e4bddf0682U, 0xbd38780e3db3cd28U, 0x3cc35370bd6a75ecU, 0xbde0e92abc949d34U,
  0x3dda1718bc60aca0U, 0x3dfd382e3d998bd2U, 0x3e076a19bded6ca3U, 0x3d655778bcaef340U,
  0xbdcfe1563de26d3aU, 0x3d497430bd71f42cU, 0xbdf216e4be07b2f5U, 0x3d4ba9803d80cce6U,
  0x3c4367f03c30c420U, 0xbbba0940bc2a99f0U, 0x3dbf37623dbe089eU, 0x3de5293e3c7be2b0U,
  0x3b9caa40ba883380U, 0xbd83227bbdf477b0U, 0xbdee06603d2977f4U, 0xbda0eaef3d955124U,
  0x3c9497203c218a40U, 0xbd89d305be0a1222U, 0xbd85722abd5fa11aU, 0xbe0871d73d457900U,
  0x3d8ad852bd782e68U, 0xbd8de5043e00f6c9U, 0x3da94100bdcca518U, 0xbd6920a2bd878971U,
  0xbd972ff63d0f74e0U, 0xbc84a6a8be058b28U, 0xbc6f73e03b1c30c0U, 0x3dabb4d03de99f02U,
  0x3db5bf9e3da81568U, 0xbe071af03d82bf86U, 0xbd54591a3d3822e0U, 0xbe02ddb0bddfec0dU,
  0xbe0e08c63d374574U, 0xbe01fe33bd7ce592U, 0xbd4e07b23db91630U, 0x3dccf878bc0b97c0U,
  0xbdfe3f10bca9dad0U, 0x3dc7a47cbdd286e8U, 0x3c4b7c20be0d7d1fU, 0x3dd4a46a3d964588U,
  0x3e08995b3dd0b302U, 0x3db39376bd746460U, 0xbd68bd1e3dc1ffbaU, 0x3db4edeabc2f8070U,
  0xbcc7bbacbe0cd2c4U, 0x3dcfc7d4bdc2b7caU, 0xbd1bc204bdccc4b0U, 0xbd4bbf183e0894b7U,
  0xbdaae408be00b8dbU, 0xbddbccb1be0d6207U, 0x3dbc74e83d90dfa4U, 0x3df51c123df23026U,
  0x3dcc31ee3d9083e4U, 0x3d93a820bdcfed22U, 0x3df4876abc9f1988U, 0x3ce8d458bb0251c0U,
  0xbd644d58bcf0a75cU, 0x3d152b6c3d69b5d4U, 0xbd2371c0bdb67d2dU, 0xbda88fb5bc5708d0U,
  0xbd4ac6f0bdafbf0cU, 0x3d4024c03d761a74U, 0x3dd4ded43dfda52aU, 0xbd441e0e3da13940U,
  0x3a11a700bd2ac5acU, 0xbd0cb2d83d5796c8U, 0xbd053e0ebd1b622aU, 0xbdafde7cbd8c942dU,
  0x3dd99dd83df9bd2cU, 0x3d1bc89ebdfd00d3U, 0xbcd493bdbd4127daU, 0xbdcba508bdaae373U,
  0xbdc47efebdcaf212U, 0x3dad2ed73b9b0e7dU, 0xbd798c18bda11226U, 0x3dbfecfcbd944abeU,
  0x3d7a69b93d98eebcU, 0x3d7d43f3bddb4732U, 0x3e03614bbd93ffabU, 0xbdcfaf33bd49e01cU,
  0x3e13546f3dfcfa14U, 0x3ddc2385bd848f40U, 0x3b933815bd3e298cU, 0x3d647c003dde3657U,
  0x3da2d2d43c4b4397U, 0xbdbb3b0bbae8bbc6U, 0xbd54ba933dddd564U, 0xbc0dabccbd9a2f36U,
  0x3d87732abcc583ffU, 0x3da4089e3d03be54U, 0xbdcf527c3aa3bb04U, 0x3df6993a3dc4c09fU,
  0x3cca64913cb085beU, 0xbdf6baeb3da9fe39U, 0xbdae57f53b89541aU, 0x3dcf6cee3cd01a0fU,
  0x3e08290c3dba2586U, 0x3d40dbb7bdc9d4b6U, 0xbd813682bd42baf6U, 0xbb9f30b83e0acc7cU,
  0x3ca8ab1dbdebd489U, 0xbcb8b781bd5c23d5U, 0x3d87f898bd76e979U, 0x3ceaad49bc2eda94U,
  0x3da49c3c3db5c91aU, 0x3de058753e14f755U, 0xbca1d80a3c39be5eU, 0x3da7e587bdbb68b2U,
  0xbd9096163d1f4f4cU, 0x3da340263c3bb8b3U, 0x3db5f3ef3d6f201aU, 0x3dd016b23d8f2e82U,
  0x3dd207acbd04c98cU, 0xbbf7f31ebcec8a7fU, 0xbd8a8e3dbcabb949U, 0x3d76a6353e114ff8U,
  0x3d015e40bd9764adU, 0xbdf9220b3e117079U, 0x3e10b4f03c994a95U, 0xbd3796d6bded6101U,
  0x3d62d42a3db6d845U, 0xbdbd753c3d1637e0U, 0xbd066a2a3dc4e7e6U, 0x3d80a18a3dc1f798U,
  0x3ca8ebed3de42290U, 0xbd9935b4bcafb6e5U, 0x3e129f083b9f7b84U, 0xbd524963bd245363U,
  0x3e108b03be01b1c5U, 0x3d834882bda18dccU, 0xbdc67d7d3c3195c8U, 0x3d933b75bd261431U,
  0xbd2f5a1a3d2cb8fdU, 0x3d45ab4e3e05a6b5U, 0xbd8fbdf1bd42eeb2U, 0xbdd8165d3e156690U,
  0x3ddb873fbd313d0bU, 0xbda5b685bd0412a7U, 0x3db769fb3bd439ebU, 0x3d587ba03cdcd438U,
  0xbdc232e03d8bc602U, 0x3d258ac03dea2bceU, 0xbd9990dc3e03de30U, 0x3d973b6bbdc377c1U,
  0xbcbb9f1cbbfca383U, 0xbdf70540be0b4991U, 0xbc4cde623e042b65U, 0x3dd5478bbb735f7aU,
  0xbde46c723d60a891U, 0x3d364039bdf1735fU, 0xbcf5bf3f3d0ab101U, 0xbd9b237cbdba947eU,
  0xbd8a608dbc8117f9U, 0x3c86de67bdf5eed8U, 0xbde78d4bbd96d2e8U, 0xbdd49635bdd87072U,
  0x3db6de30bc8ba426U, 0x3d9f92c83dd3f194U, 0xbde81501be010b72U, 0xbda886a83d935facU,
  0x3df13f1abe0b48e7U, 0xbd6629aebd342a17U, 0xbd3e8d73bdb02618U, 0xbdc492213d3b1335U,
  0x3dbd601a3e15628eU, 0xbd1cbd5e3d3c36f2U, 0x3e02055c3e00df4aU, 0x3c099ecbbe0c8a06U,
  0xbdc583963cc1f0fbU, 0x3d1fd99d3e109486U, 0xbdda9a78bcbf55e8U, 0x3c6b656abc644f8dU,
  0x3dbe73da3c8f6bf3U, 0x3d84978bbe069c9bU, 0x3dad6db0bdda4badU, 0x3d0ebb2b3dc395a2U,
  0xbd59b0a8bda697c9U, 0x3d8590a8bd0aa69cU, 0x3d80e8313dea9f20U, 0x3dbe0b873de3e385U,
  0xbdb5ded2bd9068efU, 0xbd08eed1bcadc16eU, 0x3cf32b903bd3c047U, 0x3dac0f383dccbb39U,
  0x3d9df350be0748a6U, 0xbcce97d53e0c55cdU, 0x3bad29263d935b44U, 0xbdeaecd7bdd2c414U,
  0x3d0062b6bdcde2ecU, 0xbdcaf949bdd994e5U, 0xbdeaf08ebdfeb6f5U, 0x3e0d0eeb3db12638U,
  0x3d1227cabddc787fU, 0x3dc42737bde3634aU, 0x3e001726bd89aa07U, 0xbd7e93f43e0748c6U,
  0xbd683b06bd111cbaU, 0x3de697f0bdd3d2ebU, 0x3dd7d69cbd3269a7U, 0xbd82105fbe028dedU,
  0x3d90b8403a220c5fU, 0x3e09747d3da910aaU, 0x3db821fe3db66dd5U, 0xbe00444f3df8731aU,
  0x3e05b23ebc8e41baU, 0x3cbbb5cabd998789U, 0xbd3613a2bd9e26b8U, 0x3d879cfd3dd5dd92U,
  0xbe0468643d8f811fU, 0x3d40a281bde8f058U, 0xbda9c594bdfdd91dU, 0x3df962ab3dc0e80cU,
  0x3c5932d8bcfce5bbU, 0xbd8cceb83dc5410fU, 0xbdf2cd9ebbb84a91U, 0x3e118f1fbd9b20cdU,
  0xbdb75cb6bdf04b67U, 0xbdaf26033b688349U, 0x3dabec46bd466420U, 0xbc0e93c53dc5a9a4U,
  0x3decdf2cbd89d421U, 0xbd98ecb1bd2454e9U, 0x3dc3aa273b037783U, 0x3d33b317bdbaac91U,
  0xbdf3d3fcbc8453e1U, 0xbdc2664d3ddaec22U, 0xbc8c5b62bd0f6bbfU, 0xbc85fdaf3d3fdc60U,
  0x3cda7ce13d87f8e4U, 0xbd5abd7ebba2fa01U, 0xbda1982c3d3dc432U, 0x3dfd107f3d49f866U,
  0x3da15ad33defb132U, 0xbded1d9b3d968c9aU, 0xbd632d75bb235150U, 0xbd2169a2bcf17a8bU,
  0xba8987e7bbff0671U, 0xbddb120a3e0c52baU, 0xbd105957bc849996U, 0xbdc353cfbda8e444U,
  0xbd55c7a03db4c111U, 0x3c53537abd6f08aeU, 0xbdaf74c7baa5bca8U, 0x3d99d8a03df167eaU,
  0xbdd7c3aa3d91a828U, 0x3d50632fbd8315ecU, 0xbde6a1393dc0a2b8U, 0xbd973f3fba56a817U,
  0xbe05792b3d913985U, 0xbc291b8fbd6ec318U, 0x3dcd41c1bd7ff975U, 0xbd2e4e893c877156U,
  0xbe06fb663cb32610U, 0xbdc0551cbd2d4734U, 0x3c96b167bdba1f7bU, 0x3c3cc1013df95229U,
  0x3d0f95943d7b18a7U, 0xbd554369bd8cb80bU, 0x3d8d21ad3c8118a8U, 0xbdf465b03db4592fU,
  0xbd9868c33deefc88U, 0x3d65a1d9bd0644dfU, 0x3d5b9514bd56fb3aU, 0x3df0be683d0f337aU,
  0xbe0a62a6bd50cd2fU, 0x3d2eec173b054b3aU, 0x3b95fae53d63b45dU, 0x3dead33abda28b3bU,
  0x3cf9aec13d7342b7U, 0x3ca375253d36fa5fU, 0xbcfb077f3df0a7faU, 0xbdf6b2833d858aa4U,
  0x3ddf76d03dadae10U, 0x3d52cc91bce15247U, 0x3d3390ef3de2c9e2U, 0xbda69fcb3c88c342U,
  0x3e0671233d9b77b6U, 0x3db1dd90bdc03f9dU, 0xbcef85ac3dffe8baU, 0xbba61be0bbf759a0U,
  0xbd39309a3dcb4a0cU, 0x3d35b6b83d9fd7e8U, 0x3bb997a03e094db1U, 0x3db7a98e3cf7f9a0U,
  0x3d844ec6bd39c760U, 0xbe09a97b3d6cac08U, 0x3da8d9823dfb4ec6U, 0x3c67e540bbc82b40U,
  0xbcc76c88bc848edcU, 0x3d63f88c3de7520eU, 0xbcd89754be05691eU, 0xbd0bb548bd0c2fcaU,
  0xbdb103c83cd15b40U, 0xbd6314863d735058U, 0x3dce5e7e3dad2876U, 0x3db9a434bd7f13e6U,
  0xbc223a90bded166fU, 0xbd09dacebc5953e0U, 0x3d84b3903b2bba80U, 0xbd8adfb7bdfcd0b4U,
  0x3caf53003ddb44faU, 0x3d615fd8ba349b00U, 0xbe0600993dc27ea2U, 0xbd157bf4bd4dde62U,
  0x3dc171983dfd492eU, 0x3de1e746bcf5bcf4U, 0xbd55280c3b8a5f40U, 0x3ccf1a48bdf04e9cU,
  0xbdda683e3dac40c0U, 0x3d1e9ce4bdba8e06U, 0xbe020ee33daa5eceU, 0xbdfc84063db2a98eU,
  0xbcbde2803ddc1f40U, 0x3dc164aa3e0a3137U, 0x3d8a2dba3ddf5a56U, 0x3dd507e0bd8bd9c7U,
  0x3dbcad783dcc52b6U, 0xbd5b92aebcd559b4U, 0x3c447c30be05361dU, 0xbdb3e3973d1ec6a8U,
  0x3dfbcf823debae86U, 0x3de52f8abdc324c8U, 0x3dcac1f23c5a84b0U, 0xbdbc61783d8c40c0U,
  0x3d8ec322bda248c6U, 0x3dcad40ebc119110U, 0xbd9d338e3c216250U, 0x3d1a0034be0741d5U,
  0xbd4d6b2abc8ec03cU, 0x3d6f6d1c3c70a8c0U, 0x3d8c51b8bd6b63eeU, 0x3dc9c1423da47b48U,
  0x3e0ce8073d9400ceU, 0x3c655ab0bde41189U, 0xbd37641ebdcf20baU, 0xbdb5a1f6bdcdd9a3U,
  0x3c4106903d57247cU, 0xbdef9d7abdd456beU, 0xbd231eea3d8e13e0U, 0x3df60d8a3d5c074cU,
  0x3c269860bd9b299fU, 0xbe0aa9103d3a2d28U, 0xbdb79f93bdc3dd30U, 0x3dfac65ebc293480U,
  0x3cd99630bdbd5299U, 0x3d9fcdecbd8f8d01U, 0x3ddaa97ebd1f73b2U, 0x3dfc2edabd6c988eU,
  0x3d15f5fcbd7e261aU, 0x3e0e6adfbd07146aU, 0x3d032d50bdc004cdU, 0xbe09c4503c880770U,
  0x3d287b683ddff1dcU, 0x3d768cbc3e067b15U, 0xbdb2c7f2bc7b2528U, 0x3e0c7c6d3e0e1597U,
  0x3d91c1303d8746beU, 0x3debba0e3cf95228U, 0x3d5284f03df5a54eU, 0x3c943b003dd8e724U,
  0xbdf4f4c83e09b315U, 0xbe07e8253d0239f8U, 0xbd3786c43cd8cc90U, 0xbd0655d4bcef8be4U,
  0x3c841640bc585c00U, 0xbd9d0287bd33a498U, 0xbcc108403d2e16a8U, 0x3e00fb6dbc488ec0U,
  0x3df0c05abe067191U, 0x3ddc98d6bd39195eU, 0xbdc2a468bdb8612aU, 0xbe056d22bdff9764U,
  0xbc4994c03d821a38U, 0x3dab527c3df48aeeU, 0x3dcf2b74bdeb9488U, 0xbbc26580bdbed13cU,
  0xbc41cd70bdb79e13U, 0x3da481dcbd5ac244U, 0x3d5fcd2cbdde8e6cU, 0x3c9911083d8e0a68U,
  0x3d9265c8bd23506cU, 0x3d4b6e503d0c2d24U, 0x3d7c8fc4bcecab80U, 0x3c0227103cc6b340U,
  0xbbe165e03dde29eaU, 0x3dd541fabcbb5218U, 0x3dc85d9c3da588b2U, 0xbdb14626bcfba630U,
  0x3cae0610be0299acU, 0xbd053a5abdc533f6U, 0x3e0a030bbd6b1602U, 0xbd1aa1fabe094761U,
  0x3cd08dd03dce2b22U, 0x3d9bdd2a3e082d5dU, 0x3ca36a88bdf11cbaU, 0x3e09f86bbd998ab1U,
  0xbde251bc3c84f078U, 0xbd6c5536bdd8abd2U, 0x3dcc536ebdd2e696U, 0xbd7b620cbe0a37abU,
  0xbc54da903dc206b6U, 0xbdae4b8ebc02ecd0U, 0x3e00bf63bd2a3826U, 0x3d01c3f8bdccfbedU,
  0x3da1e41abd9d0465U, 0xbd89c7a53d8f122aU, 0xbd833f523d8cd0a0U, 0xbcb2570c3caf1ae8U,
  0x3d43e4103e0ec319U, 0xbdb4b5e8bdbbde57U, 0xbd50e5263db72116U, 0xbd57ce963d381884U,
  0x3da8df0abdff87a7U, 0x3d2c7b08bddd5170U, 0x3de0795abdcd104aU, 0x3d8b76bcbbf29180U,
  0x3dc403a8be0ed306U, 0x3dd765c83bba4c40U, 0x3cd3cca0bd8ae286U, 0x3df6bf0a3d534ef0U,
  0xbde916993c5c87c0U, 0xbdbd8abebccfa4dcU, 0x3cfe06883dda36baU, 0xbddf6ebcbc4cd0d0U,
  0x3e0c6e4bbc146d20U, 0x3d0bb4603df7d5b6U, 0x3e01af933d683e58U, 0x3db892debc9d2948U,
  0xbc0860003b704480U, 0x3c5b17003cffabc0U, 0xbcb9d1803e0edc0bU, 0x3c41f6803da6d02aU,
  0xbd489b66bb60cc80U, 0x3d83bf583e09c37fU, 0x3d2890283d182e38U, 0x3dd67626bbaeae40U,
  0xbdb6a332bdbef85aU, 0x3d11a5ecbdc5728bU, 0x3c92d678bdc530d7U, 0x3c0924f03e0a66fdU,
  0xbde7f79a3d9da1c0U, 0xbd2e2330bdb2aaa2U, 0x3de7983abdc695a0U, 0x3cb5f530bdba0adcU,
  0xbd9b24e0bd900c50U, 0x3cfa33b03c7821a0U, 0xbd0719783e0deb4bU, 0xbb9883803d1ad334U,
  0xbdb669223df1b5d6U, 0x3cb280c8bdb8c2e2U, 0x3e0046673d9e0b00U, 0xbd665bc6bcd142fcU,
  0x3bad2f003db7a2e8U, 0x3dfb0f223d34d858U, 0x3c834b78bce63184U, 0x3dbfd9223d3492d0U,
  0xbcac86043a66ef00U, 0x3e055d5fbda9dc9bU, 0xbc610a703d1c44ccU, 0x3d2bbe38be009457U,
  0x3dfc4612bd8bba18U, 0xbd1e840c3d95db5eU, 0x3ddc0e72bb96c180U, 0x3d75de203d511f6cU,
  0x3e05c95dbdea03ceU, 0xbd1adb3c3db48616U, 0xbd0c40923db8db0cU, 0xbd0a514cbde495c4U,
  0x3dab23b2bd6201a4U, 0xbdba0b24bdf749aaU, 0x3e0b2285bd9e0562U, 0x3d98cfcebbc90e80U,
  0xbcab8e103ca81a18U, 0x3dcfd38a3de86aaeU, 0x3c228d903cef50b8U, 0xbc6f39203dc3f21cU,
  0xbdf5c3e4bdd1dd5dU, 0x3cfa7bf0ba9fde00U, 0x3dae1cec3d97ac76U, 0xbd9001dcbe064de8U,
  0x3d2cb42cbded7c33U, 0xbd4cf488bc53e910U, 0x3dfadd723e09704dU, 0x3c2e1ae03de19266U,
  0xbe8296a93d79e3e9U, 0xbe255bd4be6b5d00U, 0x3e4ea79abe02cd3fU, 0x3c6b6cd4be3131feU,
  0xbdee8526bc85e300U, 0xbe2e9404be0ab848U, 0xbd0954a3bda96a53U, 0xbd242904bd38df8aU,
  0xbdad8a443a96af98U, 0x3c901dfc3dea008bU, 0xbe49ee7d3dd9ef8eU, 0x3d6e01e4be7b12a4U,
  0x3debb62fbe640916U, 0x3d75f3683d67c3afU, 0x3e04b6753c572730U, 0x3e3bd74dbdf116f1U,
  0xbc95a940bd85653dU, 0xbb6eacfebe5279f2U, 0xbd1b0c21bd8d6cb3U, 0xbdc2436f3e370f49U,
  0xbc21946b3deede73U, 0xbe16f6323e0ee3aaU, 0xbe81b2233d0149e8U, 0xbd3fcb72be1f80daU,
  0x3d74087ebd337f2dU, 0x3dc74a4cbd8b3fb7U, 0x3d5e25303d025f1bU, 0x3d9892503d8fda6cU,
  0xbd97b1523c601c69U, 0xbe86f783bc0961d9U, 0xbd1c22bebd6cb70fU, 0x3e01cf12be3b3bfcU,
  0x3d9923f23dfd339dU, 0xbd1b3648be10dcb8U, 0xbe0218493d27dd2fU, 0x3db958683d422018U,
  0x3e6f7ed7be21029dU, 0x3c82ea153d3d49adU, 0x3e0839243e48fdfcU, 0xbcf1df34bd7742acU,
  0xbd46ac4dbda5fcc6U, 0xbde957a2bc3f289fU, 0xbde028b13da4b064U, 0xbe393b1e3dd275eeU,
  0x3e1fc6513cc7a6e1U, 0xbd9b261b3dcfd811U, 0x3af62430be42449aU, 0xbd7b71babd945c6eU,
  0x3e09b2ebbdd23ffbU, 0xbcb0a4a0bc65eec5U, 0x3dddf32bbd64c939U, 0x3d7a42673e39e877U,
  0xbd8ebb443e196deaU, 0xbbad37bbbe49312fU, 0x3c201a08be69aa42U, 0xbe1c937fbdb56ff0U,
  0xbe8f36273c8237a0U, 0x3e7b0ecdbe00214cU, 0xbcb2af043e106d9cU, 0xbd2f5a7d3c7898caU,
  0xbd22a7fd39f2d457U, 0xbe635b523e071a93U, 0xbd86e664bc81b103U, 0x3de31849be5e3d21U,
  0x3e5e3163be1eff21U, 0xbcb347083d0d4990U, 0xbe127e80be12dddfU, 0x3aa16045be1bf9baU,
  0x3e0e2b4a3c3a1525U, 0x3d097845bcbc293dU, 0xbe3d19563d8f4a27U, 0xbd452c413db6cb8bU,
  0xbd6ef53abc44ab9cU, 0xbc8444f63d1a13e8U, 0x3d3e782c3e5375deU, 0x3e077e683daef4ecU,
  0xbd31c5893d0b0094U, 0xbda1c1ccbd83317bU, 0xbc426c283ce9b40eU, 0xbe100946bd8ba949U,
  0xbc99c270bd200a8cU, 0xbe3656bc3dd06c9dU, 0x3df2f051bdd9f717U, 0xbda241613b11caa9U,
  0x3c817442bd9b9733U, 0xbe08d7b4bb8e13e4U, 0x3dc4d267bd9da0f7U, 0xbd7182943dc1a697U,
  0x3d8d49ffbd932a5aU, 0x3bda09963d63b64bU, 0x3a01d88bbd031ef4U, 0x3dbc1f313db8f1bcU,
  0x3df47e25bd2e0a75U, 0xbd2dc2cc3e045e5eU, 0x3b90e1353d08df3fU, 0xbd710c3bbd814e5dU,
  0x3d74146a3d8234f0U, 0xbbaf7361bdd30027U, 0xbd8444e1bda1a573U, 0x3d22e64a3daba49fU,
  0x3dcccf593da1b312U, 0xbd9e7f483d5e464bU, 0x3dbca5e23e0aec0bU, 0x3e450303bdc9e265U,
  0x3d1f5c083d3b29c0U, 0x3cce1da83db9a172U, 0x3e087effbde48dabU, 0xbdb9ac20bd920287U,
  0xbda55c503d7ddefcU, 0xbde796023daafed8U, 0x3b5f2200bdf49d18U, 0xbd9076fbbdaac66cU,
  0xbd406126bdfda8adU, 0xbc2569f03de0c00cU, 0x3d108fdcbd83d8a4U, 0xbd8deeff3dff419eU,
  0xbe071ca3bd3d0e08U, 0xbde073e43df73726U, 0xbcc551383debc56aU, 0xbd4bf84abddedae0U,
  0x3cbccb583da019f6U, 0x3d8d03e23d2ac460U, 0x3d7364acbc38c9f0U, 0xbe0da0a73d3e9020U,
  0x3dd7f460bd20e002U, 0xbce1690c3b2b27c0U, 0xbd320032bca73a58U, 0x3dbaed36bbb695c0U,
  0xbcdfa0943dd2d58aU, 0xbd55413e3dd3f8baU, 0xbc3333003d2d6878U, 0xbce367e43cb7d028U,
  0xbdc45768bdcf7830U, 0x3cf100c03dd61fe2U, 0x3dfa771e3e076e6dU, 0x3d883b863cc20fa0U,
  0x3b5b25003df1da6aU, 0x3d3fa5d83cfe2a08U, 0xbd8bd4553bd4d3a0U, 0xbd488de6bdfb7b92U,
  0x3cd1c230bdcb3db2U, 0x3ca540103e07f025U, 0xbd827c2a3e0b1ebdU, 0xbde25fb6bd08f626U,
  0xbdf42bc3be06f8d0U, 0xbccce5a0be046382U, 0xbdef89103df207d2U, 0xbcb6e64c3deec3daU,
  0xbd2f8be03dab8d5eU, 0x3cb4db18bd4741daU, 0xbd97cbe63e03a4bdU, 0x3d1e4b583cdb22d8U,
  0x3e085e933d8127d6U, 0xbb989ce0bc3813c0U, 0xbdd32d31bd35370cU, 0x3e07ebedbd49fc08U,
  0xbd998f04bc5aef10U, 0x3da2601e3ddd158eU, 0x3ce277b03cd6be18U, 0x3b969320bde7246eU,
  0x3dbabde6bb57f680U, 0xbc9074203d597ce4U, 0xbd8681cf3e09dcd1U, 0xbddc87363d9dcd16U,
  0x3e0dae693c85a9d8U, 0xbe036f3bbc6d5970U, 0xbdb98cab3dabf42aU, 0xbd7c29523c9d8028U,
  0x3d5995c4bdb0abe2U, 0xbdaa01353df6312aU, 0xbd05aaacbde0757aU, 0x3da596d43db181beU,
  0xbded969dbdd1a815U, 0x3dca5dc03e0e7ea7U, 0xbdc061763c80fae8U, 0x3d9b7e9a3e0cd651U,
  0x3dcdab063bf3d5e0U, 0x39ba8e00bca01694U, 0xbe05705e3d09f020U, 0xbdba049dbc8f8e1cU,
  0xbe0950cfbd266d24U, 0xbc75c738bb9a3080U, 0xbdbc23d43de7574aU, 0x3d54d85cbd999437U,
  0xbd8ee104bd1dba30U, 0xbe0390773db9d2e0U, 0xbde61b1ebab02980U, 0x3d1cd6683dd395d2U,
  0x3d8a8b9abdaf1d3bU, 0x3bb4a2e0bd0e200aU, 0x3c994968bd8154eaU, 0x3cc557903d3a45b8U,
  0xbdebe2b2bdb90d6eU, 0xbc44cff0bd53ce3aU, 0xbb59c700bdb6c82aU, 0xbe0e0969bde71b7fU,
  0x3df7536ebe043d24U, 0x3d439c64bd30f6f0U, 0x3c1eb0703dfb346eU, 0x3ccde208bd4e2bb4U,
  0xbd7797d8bd5e4beaU, 0x3db60e1cbb9f9140U, 0xbd37f7e43de31536U, 0xbc9647503b92c800U,
  0xbdf3a6353d878388U, 0xbd9ebc42bd35f370U, 0xbe06232d3de2f1beU, 0xbdd5c19e3db54c50U,
  0xbda542ac3e02055fU, 0xbdcdbe9fbdb3dc25U, 0xba4d62323db72db4U, 0x3d45559dbc9cf70dU,
  0xbdc4890e3bdb4ffcU, 0x3dff537fbda67503U, 0xbcdbe2163dab0b5dU, 0x3c98e4d5bd5f3ca5U,
  0x3d836366be135fa5U, 0xbde4e74c3d93c2f9U, 0x3d878ad9bd8ebd03U, 0x3caf4421bd8cade3U,
  0x3d08f042baf376fdU, 0xbdc83afb3d3df5f0U, 0xbd8475863d3520a2U, 0x3d91dc8b3d979211U,
  0xbdfecf6e3df56008U, 0x3cbe4dd9bd50d686U, 0xbd84e3e83cf5625eU, 0x3d743b2cbc9f78b6U,
  0xbd9a0616bd159e14U, 0xbdddf06a3d9c3607U, 0xbbb6b73ebd57f09fU, 0x3e056b9c3d073544U,
  0x3e07f5c13d1b5b00U, 0x3c9803fe3ce79236U, 0x3c0ae5093d67443cU, 0xbd8f6a713d204e47U,
  0xbd2c14b3bd833e98U, 0xbdbcd1cfbd8a992cU, 0xbc9aa859bd34bda7U, 0x3e0bf26b3dcac49eU,
  0x3d32fb38bd98fc60U, 0x3d8723d53dec5ccfU, 0x3c79b638bd1f9dbdU, 0xbd55aed93dee6146U,
  0x3df3e2b73e0b9ec6U, 0xbd0d2cb23da0033bU, 0x3e1063a8bd3e0b4cU, 0x3d1e8263bdca6fe4U,
  0xbda50061bd83767fU, 0x3e07b69c3da7a474U, 0x3dc150793cd0c28cU, 0x3d012431be03a61fU,
  0x3d868fa4bc983259U, 0xbdf63f8d3d47368aU, 0xbdacf13fbd460457U, 0x3d1eb95cbdfbafaeU,
  0xbcb11d563dff451cU, 0x3da06798bd8295dcU, 0xbdd23038bd75f6daU, 0xbdd70d23bcba679eU,
  0x3e0fd5f1bba30287U, 0xbd4ca0ae3d75dba3U, 0x3df7d2863dfa6e22U, 0xbd935d753d9d33e2U,
  0xbd7f7f97bcddb483U, 0x3cbd7f7b3e159eefU, 0xbc00e349bb8ad271U, 0xbdbf125cbdac3bcbU,
  0xbd4687553dc60f39U, 0x3d051d09bd9aafaaU, 0x3bda9ed6bcb9e86bU, 0xbd820732bd979738U,
  0x3d9ba0703d4d6e5eU, 0xbde5050f3d470a61U, 0x3d1687463d076eb7U, 0x397350783baae3eaU,
  0xbc351b2c3d0ca644U, 0xbc17e418bd40ff43U, 0xbd9b9922bc43e099U, 0x3e0d984fbd81899aU,
  0xbd9dc5d73bc98dacU, 0xbd65b7a6be127732U, 0xbd8db958bdae5a28U, 0xbdc2d7023cb2c2caU,
  0x3c472248bc27cb5bU, 0xbd784ff9bd8cb40fU, 0x3d8a63513de75056U, 0x3b30d671bc5e52cfU,
  0xbd3c9fb33d150bcfU, 0xbdf9ec7a3901481fU, 0xbccfb9003cea931cU, 0x3d8c28d4bdd4e40aU,
  0xbd1a6c67bd79dda4U, 0x3d4905a33cfef2f0U, 0x3cb5ae3cbdede98bU, 0x3dff85a7bdbaf8f9U,
  0x3df1c8273d9a07e4U, 0xbde88d8cbd7b90a6U, 0x3c83d6abbddb28eaU, 0x3b67085d3e0a6e38U,
  0xbc147759bc6cf8c1U, 0xbe059f1ebd326efdU, 0xbe0594d5bde54406U, 0x3d67e11cbd7c5881U,
  0x3c872648bd2d297bU, 0xbe057090bdd3ef93U, 0xbde156173e0241cfU, 0x3c3bbc3d3dc62f72U,
  0x3e0a530b3d4f455eU, 0x3da3e659bd57a219U, 0xbd6db22ebc0d1ea8U, 0xbdf11654bdf7fe9bU,
  0xbd43d7243d8fc352U, 0xbdb08c723e5b4252U, 0x3d8af8b7bde7bc9dU, 0xbd1301de3e481abeU,
  0xbe04bd9e3d9adbacU, 0x3e2c1f5a3e61acd2U, 0x3e26156fbe0cac73U, 0x3d99abf0bd88805dU,
  0xbe929d723c22e094U, 0xbd6045993e6db9faU, 0x3dd7b4a53de7c21bU, 0xbd1aa0803e508d35U,
  0x3dabc9b2be29e0f2U, 0xbd89700c3c938017U, 0xbd7b89873e500ac2U, 0x3dee6407be37fc33U,
  0xbd13675e3d16549bU, 0x3dca5a213e0b60bfU, 0x3a9073d63e43335cU, 0xbdee9a2a3da2b724U,
  0x3e16073c3c3aaf08U, 0xbd0bbf51be2ab909U, 0xbc7cc1b03cb9c5f6U, 0x3d5e966b3d3d41e0U,
  0x3df3f5833e05f021U, 0xbac4b765be3902b5U, 0x3d98f640bd265233U, 0x3de3f4bbbe108bdaU,
  0x3d6fba503da47acdU, 0xbc866855be95e0c5U, 0xbe27afc13c7035a6U, 0xbe3cb7f93de3740dU,
  0x3e0e54a4bcc8c60fU, 0xbdf95d883e255a2eU, 0x3df186413b24f112U, 0xbea96f5abe073ca5U,
  0xbe7456e8bd411abcU, 0x3e2c43d9bd22cb8dU, 0xbe2ad52cbe995d13U, 0x3da697a53e300a08U,
  0xbe0aa49cbe2a8c82U, 0x3dd8f4803e20539eU, 0xbd574f59be31ad52U, 0x3dac8596be0054c7U,
  0xbe4af19dbcc8aa91U, 0xbd94ca06bdca93feU, 0x3d329a643db3b3f7U, 0x3e6a1a2ebdcd46f5U,
  0xbc90c936bd872d91U, 0xbb1a4fd6be12d8daU, 0x3d6906f83c408726U, 0x3d8b39a4bd7384d8U,
  0xbb346127bc6a9702U, 0x3dd271c7baff781fU, 0xbe3caf6e3d9a9f6aU, 0xbdb6a4863d356db6U,
  0xbd1875f0bbcc757eU, 0xbd838549be409f90U, 0xbceb7f853db8a1f8U, 0x3c0adc1a3d5f010dU,
  0x3e5b2d133d1ffc55U, 0xbe2e850ebdc37abcU, 0x3dda42c63dc41ab4U, 0xbd67f2febd8a27deU,
  0xbd1f2fa7bd813190U, 0xbe2b71febd35bdb3U, 0xbe15cf37be2e756bU, 0x3d168d463d58089dU,
  0xbe592a6d3e742b8cU, 0xbcc0502abd7ebe54U, 0x3e21fa51bdcc2030U, 0x3e31efb6be42285fU,
  0xbe52ef9bbe2ccd2bU, 0x3e0b908dbe16b3a9U, 0xbe0955233c84846fU, 0x3d5efa35be08a7caU,
  0xbde852873e0ea034U, 0xbe0ed4cebc174bdfU, 0xbe12d89f3cbcad73U, 0xbd9a8f103d295407U,
  0xbe097d95bd895ccdU, 0xbd9900fbbb9729acU, 0x3da0821cbddcca84U, 0xbd5a71a9be5560e5U,
  0x3c2d7938bd62615eU, 0x3d0365e3bca7df00U, 0xbe3b59ccbdeef854U, 0x3a1240783de81e37U,
  0x3cb8c4083d4d7be8U, 0x3d9c4015be24f06aU, 0xbe861936bdb98a06U, 0xbd99d6a4bd24b065U,
  0xbe06ad63bdad5167U, 0xbb864426bdacbfc5U, 0x3c09a385bcae7555U, 0x3d9f8e6dbe479b8cU,
  0xbdaa4b243e441e2eU, 0x3daf1ef33e13e4a2U, 0x3bdd55c4bdd842a9U, 0xbc6ce5d13d87643aU,
  0xbcc3718e3e0c1d6eU, 0x3d911cd5bd4c3a9dU, 0xbbdf6e66bd0d5e43U, 0xbe30b1623d308387U,
  0xbcea4aea3d5800aeU, 0xbd7ad939bd995d05U, 0xbd802b07bcb28881U, 0xbce8d93e39810e32U,
  0x3cff98b33d0288c3U, 0x3cc62cbf3d994a3cU, 0xbde51811bcbf25abU, 0xbc48afffbd8bd5a6U,
  0x3ca7fab4bd087a2fU, 0xbcb1e3ccbd95088fU, 0x3d7974ff3e005500U, 0xbc5c89c43e021f2fU,
  0xbd9a85073c2c09efU, 0x3d947bdd3d9243efU, 0x3dac51aebd2ec61dU, 0x3deb7dd2bd9e7d6bU,
  0x3a2935a9bdd08f2eU, 0x3c6937c8bdf9b55dU, 0xbd1e67b33e041150U, 0xbdccd8f2be0ccb14U,
  0xbdd5751cbd895743U, 0x3e0d5509bd3e61e8U, 0xbcb79845bdb1bc3aU, 0xbdbeb1ec3daf4ff0U,
  0x3e00ff4f3d8011d2U, 0xbdd2e3983d8cd696U, 0xbdac0c7e3dd5f0a4U, 0xbd813891bcde5b82U,
  0x3d60df23bdfa67d0U, 0xbd09ce313d0daac5U, 0xbe05c5383d64efb3U, 0x3ccc467abd98e023U,
  0x3dd30e1ebc99ae22U, 0x3d92dbecbe0144faU, 0xbc4679a3bd16595cU, 0xbc3ab6203ca69315U,
  0xbc50cafbbdcabe88U, 0xbcf3a1d7be09427cU, 0x3d3bb1b9bdb5aaf8U, 0x3d396375bdbf14ceU,
  0xbdfee8113bd5baa5U, 0x3dc8579d3d0ae092U, 0xbde5c9333e0980d0U, 0x3d7b27dc3e1835b4U,
  0xbe00db563d241a0cU, 0x3ddfc9b9bda8e54eU, 0x3d9993433cff619eU, 0x3db685fbbc36a49cU,
  0x3d88e93a3db3ae8dU, 0xbc8070b3bd636c2fU, 0xbddd3b0fbca60369U, 0x3e0643833c51a8d3U,
  0x3da8117d3cd26420U, 0xbc9a8c83bd8f99d4U, 0xbde809083d931a65U, 0xbcc9019d3d386027U,
  0xbd921ebf3e197f8eU, 0x3db342d93d7ac0e6U, 0xbdec03be3d8b05b3U, 0xbdbfa2a03db33d87U,
  0xbe0ab0cebcc89a45U, 0xbd3861283c051079U, 0x3ddcfe7abdbd1f3cU, 0x3d9ff1ed3d3845f7U,
  0x3be7ef6cbcc87498U, 0x3e04bc71bde27285U, 0xbe093757bb41d818U, 0x3e078c573e05f3e7U,
  0xbda35eb1be0a2e3aU, 0x3d411f31bd823b41U, 0xbd48361d3dd13b2bU, 0x3d1b1f5bbdf0d703U,
  0xbe0c02133e0d41bfU, 0x3dc48a41be00ccbdU, 0xbddc93b1bd83bff2U, 0x3de23952be01f6bcU,
  0xbd80671f3e095a84U, 0x3aec1e443da81bc6U, 0xbe11311d3d5ec2a5U, 0x3c1308113de43e85U,
  0x3d7d750c3e07fcfdU, 0xbd99cb04bdba87cfU, 0xbde847453dc264c2U, 0xbcfa99b73da515caU,
  0x3de87183bc7f0487U, 0x3d90a4e33c6ee316U, 0x3dc7f8f03b86768fU, 0x3da19a6d3d3e6131U,
  0xbdadb471be0fe46aU, 0x3e01558d3d9e105eU, 0xbc89ee393d994d27U, 0xbd636e353dd52858U,
  0xbdeb95cdbe1a0027U, 0x3dc58ab83c42b51fU, 0x3d3df24b3dcf87dbU, 0x3d8451dc3e0636cdU,
  0x3da367d7bdf9216aU, 0xbd867095bda36bcfU, 0x3de19d68bc91da34U, 0x3d0b04ba3dd34a9dU,
  0xbdb06d3d3d87a0b1U, 0x3d14ee03bd9438bfU, 0x3dd187da3c33089aU, 0xbdc519583dceba9eU,
  0x3dac8ae7bd95a1a1U, 0xbeaeb376bdb511cbU, 0xbe0720f3be140beeU, 0x3d8fe970be1f6367U,
  0xbd4636e9bc88092fU, 0x3e19dd8abe821228U, 0x3de5001dbc826eefU, 0xbe529c78bd2323b3U,
  0x3d4d079fbd8a3a67U, 0x3db21401be0edfe3U, 0x3e39d72ebe6056baU, 0x3dfdbd3ebd32b346U,
  0xbdc34d293e4cd331U, 0xbd3cf12a3dd84e9bU, 0x3c7385763db5bc8fU, 0xbe7691d73e743c0aU,
  0x3ddd356cbda0eb56U, 0xbe33dc88bda1326dU, 0xbc3a119b3e76e68fU, 0xbd8bac8dbe141af0U,
  0xbd24d3b13d9cdcb9U, 0x3e82439cbbac7e68U, 0x3e591daebda66724U, 0xbe0572bdbe2bc712U,
  0xbe1fbcb5be8eaeecU, 0xbd512804be75e30dU, 0x3cc3901dbdf17796U, 0x3e29709e3d42e92cU,
  0xbcd3a74f3d8dc961U, 0x3e32750abce4c86dU, 0xbe6ef95d3dcc6455U, 0xbe6c85413da27e95U,
  0x3d42cdaebc9db72eU, 0xbafb866fbe73e521U, 0x3e54253f3e2316fcU, 0x3e5a98363b18524dU,
  0xbe1ef3163d9983bbU, 0x3d3c2c92be5cd567U, 0xbbb4d6c13b14b3a8U, 0x3d1eaffebd89249dU,
  0x3dcfe859bd9605d0U, 0xbd57fe1dbd89da42U, 0x3e2691453d840d43U, 0xbe84dbedbd24cbe6U,
  0xbe84d35e3d331cb9U, 0x3da0ad3cbe52e896U, 0x3caa350a3da39ce1U, 0xbde3b8f7bcf6871eU,
  0x3cd4f8c7bd5e3953U, 0xbddb6c0c3dd8cddaU, 0x3d88751ebdb0a2e8U, 0x3d8e7984be4ec9d7U,
  0xbb360eec3e1489b5U, 0x3d8bc6da3dbc1958U, 0x3b24e7e5bd9f2b02U, 0x3e0da2a33e05d72aU,
  0xbdcc56aebd489819U, 0x3d03abdabe27fcf3U, 0xbd96349a3d65e5f5U, 0x3e114129bda81caeU,
  0xbddfb2c93e12affeU, 0xbd3cf264bdc51f5bU, 0xbe1b59563d8e1b7cU, 0xbda7fad2bd50cdbaU,
  0x3d695393be407a9eU, 0x3c86173dbcc096d9U, 0x3d327b21be226a76U, 0xbd1eb164be670601U,
  0xbab7332fbd12c45bU, 0x3e26fb073d962d1eU, 0x3c80d1553d4277f9U, 0xbd4ab0a03d6e59f9U,
  0x3d3ff750bd5616c8U, 0xbe05567fbd1fc358U, 0x3e41fb4fbe0af7bbU, 0xbd0594d93db0491fU,
  0xbd8947843d5c0125U, 0x3e308d9a3d018299U, 0xbdcbe535b8a8920fU, 0xbb3549a73d56efb6U,
  0xbdd12ac03e0781c0U, 0x3ca7b64fbe2356d3U, 0x3db6bda23d70813cU, 0x3d1db5a43dcfd819U,
  0x3bdff55d3d5566edU, 0x3dc27ac3bd46e9e3U, 0xbca4c4adbdc03b0bU, 0x3d8d4c4fbde63640U,
  0xbe2b5b7b3d810b4fU, 0x3d56bda73dace838U, 0x3e2edab2bdbedffcU, 0xbe05fcd23e2c9e4aU,
  0x3d963cad3df28fecU, 0x3d56b066be03645cU, 0x3df9a32abdacc021U, 0x3c905036bdd510dcU,
  0x3d01151bbdb37082U, 0x3dd1228c3e2520caU, 0xbdf85a0dbb2d57d9U, 0x3ddbccaf3d558529U,
  0xbc3553823daa4ea0U, 0xbe2e9983bda06e19U, 0xbcaefbfb3c5d40daU, 0xbd565c68bdaac192U,
  0xbdec849fbe16ce90U, 0xbe3454d5be05f8e3U, 0x3d73941ebe55bd7dU, 0x3e26635ebe15c382U,
  0x3e6d0d5d3e8c5483U, 0x3d19b7eabde4d74dU, 0xbd883c9d3d4c65baU, 0xbdf4f4ddbd0bece4U,
  0xbd77ae95beb96763U, 0xbe4d73403e4a06caU, 0xbd6012353e2d18adU, 0xbe3c581f3deedb0fU,
  0xbde6c0e53ddcfd6bU, 0xbdb283e73d0e4499U, 0xbe85b2463e11a946U, 0xbe16fa9abe5dc93bU,
  0xbca92893bc12be30U, 0x3ea0693ebe20b56cU, 0x3d96bfc2bdcf38aeU, 0x3e104a5d3e437ae1U,
  0x3c54fcc5bdfbeeb7U, 0xbe906034be95472eU, 0xbed0776abe29b25eU, 0x3de13bee3e53b614U,
  0x3e2f2aee3e8215aaU, 0x3e02d008be78daf5U, 0xbc27f0a33c96f63eU, 0xbe02aca53bfaeebfU,
  0xbeb132e7be6648c5U, 0x3dfdcfc8bd181c31U, 0x3dcafbebbda8f45bU, 0xbee510533de85fabU,
  0xbd8bd0bf3e29bf4cU, 0xbde69713bd04eb90U, 0xbe916e64be843686U, 0x3e1e4060bf002025U,
  0x3e05c8593ea04a09U, 0x3e9b60af3dcb87b0U, 0x3e445be2bede2b12U, 0xbd7935df3d7fad59U,
  0xbe352eeebe8292acU, 0xbf1149c6bec4cb61U, 0x3e452a063ddf66f9U, 0xbe906d853e04cc75U,
  0xbe68b1ef3e982592U, 0x3d64ed8abda77f50U, 0xbcdd40ffbe3e25c0U, 0xbea9f101bd93dd44U,
  0x3e7149a0be98cbcfU, 0xbd6feb693e67cb71U, 0x3ec701c1be5aaf5bU, 0xbe65157fbe59d42fU,
  0xbdad81c6bd94197bU, 0xbe6f8d0ebd64010bU, 0xbe194835be6606feU, 0x3e80021b3e82d364U,
  0x3c900c33be73efb9U, 0xbdc0e9623e6d6326U, 0xbdbee398bdf1a074U, 0xbdc7a390bd458d91U,
  0xbe2bfecf3dc1a6ddU, 0x3dda74e1be83e6e8U, 0xbebb72063e9fab39U, 0x3dc34c383dde165dU,
  0xbe9bc33ebe51d9e9U, 0x3d3c64643dd56c0aU, 0x3d9079573ddbe6abU, 0xbdce096ebc5639b6U,
  0x3e9a6e463d8fc692U, 0x3d75fb7bbeddbeceU, 0xbde2edacbda2f902U, 0xbdb88984bdb6b9edU,
  0xbe0310483e539f02U, 0xbe543852bd989897U, 0x3c9d10de3c5bf171U, 0xbb984e453c5a53e3U,
  0xbe06800cbde7b54fU, 0xbe71161b3dbf2266U, 0xbdcfd6f23b8362edU, 0xbd6a69b9bd0b5808U,
  0x3dcba0fbbdc15cb2U, 0xbd989990bd25174fU, 0x3718bfa03e6dee88U, 0x3e34d276bd0bd91fU,
  0x3cf261843d40beabU, 0x3e1b9eb63ca1943fU, 0xbdbf9facbb12db9dU, 0xbe22e45b3d152d6cU,
  0xbd8422393dc1e271U, 0x3ddbf9ccbbf08293U, 0x3e5455d5bdbfe0b1U, 0x3da534463d0e6ddbU,
  0x3e82cff13d453fa2U, 0x3d9d4edebd73d7e2U, 0x3e9017de3d9b3df6U, 0x3d570ce9be0b84abU,
  0x3d6d87f63de1a45bU, 0xbd7734d33dff2abcU, 0xbe01c8b7bd1504abU, 0xbe24011b3d0c501fU,
  0xbdfe7aca3d7b2270U, 0xbc92c2703da7657cU, 0x3e78a2e83e510a95U, 0x3dfcffafbe19e24cU,
  0x3c4bb1293d3907c9U, 0x3eb44cb93e1b9068U, 0xbe0455713e00f98fU, 0x3dc3bef8bbc03922U,
  0x3e6fc8a5bdd2b9a2U, 0xbe12e2a63e71f249U, 0xbdb964883ed0371aU, 0x3e0474a2be0ba369U,
  0xbca61a5d3e9dc2e8U, 0x3dd210a7bdf280c6U, 0xbe7540b1be5c3d8cU, 0x3e2fe8983e8a20c3U,
  0x3eb707c63e71cc6fU, 0xbd78977abd6cc164U, 0x3dc1b7c63e251ea4U, 0x3d2c1e99bd989b5cU,
  0xbd70ba0a3e3e295eU, 0xbcef375cbec5084eU, 0x3e652ec73c6cd2d3U, 0x3e01c1183e4e5c8eU,
  0x3e7209c8bdaca2c3U, 0xbd763f75bdd846baU, 0x3dd42cf43e9f77edU, 0xbe4db8efbde874b7U,
  0x3e9075c2bcc38ef7U, 0x3eb1e1673e80945eU, 0xbe0a14d9bd2f55ffU, 0xbd69d692bd2bcf46U,
  0x3e9d3ba93e84bd40U, 0x3d191aa43c9ee2e9U, 0xbdd3902cbdd21ff0U, 0x3de2a9473c0e8aceU,
  0xbdfd78e3bd0c438eU, 0x3de24dfcbdc36b5eU, 0x3e3fa4613e3b00eaU, 0xbd0286753e8b4c15U,
  0x3d93b5343dce759aU, 0xbc051d573cec54c5U, 0xbe769cac3e007881U, 0xbd788744bdc9c21aU,
  0xbd4996d6bdfe64cfU, 0x3db571a83e0f1a61U, 0x3defb2753d988d22U, 0xbda79f62bdd4c353U,
  0x3e4903abbdc33e82U, 0xbda70a79bdd856aeU, 0x3bd5fc873d5e9febU, 0x3dcf950abd6ee616U,
  0x3e0a0135bd5e7d63U, 0x3dfcbababd519a95U, 0x3e25af0dbd32611fU, 0xbd0dffdf3dd3ac6eU,
  0xbda4d524bc3f5674U, 0xbde405e7bd904297U, 0xbcd531213d6f8264U, 0xbe1ae804bd3453bdU,
  0x3d7ca765bd9ab3fdU, 0xbd8dde4f3d8f9bccU, 0x3b5c00bcbdd9425aU, 0xbd13fc653e35cabeU,
  0xbe40c4cd3e73d40cU, 0xbdcb29e4be548f64U, 0xbe127bee3e66bfccU, 0xbaf2cc433e6e2d5eU,
  0xbdd0dfb3bdf761dbU, 0x3dce04173bf7ebeaU, 0x3d2a883dbcc89433U, 0xbe4189bdbe753c42U,
  0x3ca8c8d4be30ca41U, 0x3e4dcaabbe80d54cU, 0xbd52e9c33df78db1U, 0x3d164137be1bea06U,
  0x3dba14d83e3cce9bU, 0xbe2ff89b3daa6a82U, 0x3d49eeb9be68ee94U, 0xbe1599eeba90134bU,
  0x3d344cd7bdbe4ccfU, 0xbc5c7c80be2c1d3dU, 0x3c65b0613e1fe84dU, 0x3e05b9ae3e5753b9U,
  0xbd40df2fbdfbfcecU, 0x3df43275bdb77b23U, 0x3d987bdcbd069ad7U, 0xbe2bf8373ca909b2U,
  0x3d6e1648be0a076cU, 0x3e7bbdeb3d307c31U, 0x3ba8ec123da9a3efU, 0xbe47d87a3de55301U,
  0xbdb10f783cd23eaeU, 0x3e8b14873e7795a6U, 0xbd96d1c7bdbdd91eU, 0xbd80c73f3d915115U,
  0x3e2f3a86bc9314f1U, 0xbd448f0abe55fe85U, 0x3d1c8246be1229b8U, 0x3d94e7c6be25f4c2U,
  0x3d1137a4bc9b9889U, 0x3e0aba8d3e0cec59U, 0x3ccf73423e1a40e4U, 0xbde7429b3e293142U,
  0xbe334b95be33f9d4U, 0xbd9862a2bdd0f11aU, 0x3da841aabdf006c4U, 0xbbdc1a93be31fec3U,
  0xbb184dd93e08b8b0U, 0xbea419643e04512cU, 0xbdec36493d2b9e9fU, 0xbed45ab3bc5a524eU,
  0xbe950998be7dca9fU, 0x3e925ef6bcef1beeU, 0xbc9050843e406716U, 0x3e9eacd23e2fc9b7U,
  0xbd8e7de2bd8b6289U, 0x3e386ceabd30182cU, 0xbe15f7e8bea36104U, 0x3e8cb41c3e1f6cf4U,
  0x3e01cac1bd6994d6U, 0x3e40595ebe25d00eU, 0xbe5495903b932f01U, 0x3ddf5617bdb777c3U,
  0xbe985c2dbde29c91U, 0x3cfabea53e8b94ddU, 0x3e6ab3b53e464a30U, 0x3d24dc2fbe157517U,
  0xbda993e83e8b3229U, 0x3e257499bdf0b3f4U, 0x3dc35ef83dba6d46U, 0x3e0d4592beb81fe9U,
  0x3ead2ee3bd094f1eU, 0xbe22dc303eaa111dU, 0x3e9012e03d982f26U, 0xbe1bdaf5be5c5801U,
  0x3e83891f3ece8798U, 0xbe447ac0be0d7f77U, 0xbc7cef4e3e77b283U, 0x3ecf49dcbd2805ceU,
  0x3d9c2020be52352dU, 0xbe3f38813e264366U, 0x3e946ec5bd93dbe5U, 0xbe226dd63c093baeU,
  0x3e377bdbbdb78472U, 0xbe1fef1c3d8a9a71U, 0xbd0adcc43e936c9fU, 0x3bd07879be0366a1U,
  0xbdd4370d3d53e6f4U, 0x3e27308f3da8b53aU, 0xbdcf2d49bc8cf6b2U, 0xbe9bde823a9a8021U,
  0x3d9b0408bd0dfa68U, 0x3dc271083d920333U, 0xbdbee4babdc979fcU, 0x3e0686583de92fd7U,
  0x3b91c347bd123608U, 0x3dd7ae21bc8fe65dU, 0xbcbd20c8be0de72eU, 0xbe64a6c43e931b35U,
  0xbe13f6a8bd88b09fU, 0xbd967fd3bd3dda7aU, 0x3c6c98863e42521fU, 0xbc933539be05a2afU,
  0xbe5646543e122d10U, 0xbe0c151bbcbe96b5U, 0xbc9a9e90be82e09aU, 0xbd542a2bbe69cb95U,
  0x3dd740a8be0728b9U, 0x3df89957bdcd7e66U, 0x3d5b95c1be838fdeU, 0xbe5c78f63e18524bU,
  0xbe1e23c13d791756U, 0xbe064d353c837941U, 0x3d789e9c3d86825dU, 0xbdc118bc3e027adfU,
  0x3ce431613e562c16U, 0x3e122640bdac96c5U, 0x3e80d72fbd33578eU, 0x3dae4713bcc676ebU,
  0xbdf5644fbded6b8aU, 0xbce7fcb6be35299aU, 0x3e301d06be042453U, 0x3e500c32bc9f0654U,
  0x3d198d1f3da5c577U, 0x3e0b46b33c8a2b13U, 0x3dd709753e191142U, 0xbd9879d6bdce4dbbU,
  0xbde7b5e63e67031aU, 0x3e0598b2bd023f7fU, 0xbd540ed43e18f1abU, 0x3e1ad5b63e07b4adU,
  0x3c8f730f3e5991a9U, 0xbdb990d6bd0a25a1U, 0x3c8470e1be4c9d06U, 0xbc8dfa5abddd60e1U,
  0x3d91afc4bdc64c24U, 0xbd19ea023d76547cU, 0x3e34aad9bc2daba7U, 0x3dc1824bbd66d07eU,
  0xbb938980bcdfe077U, 0xbcac1c333e047c14U, 0x3c008b383d9cdec9U, 0x3d2eb2273e54bfaaU,
  0xbd6229ccbdcfc9daU, 0xbdef8076bcdf7f7aU, 0x3e0d9739bd1b7d74U, 0x3dbf9ad83d8a074cU,
  0xbb395c7bbe46c663U, 0xbccc3ef73d796745U, 0xbdad9ed2bd87eec7U, 0x3e1f770c3c9b76fcU,
  0x3da69d6dbd988ec9U, 0x3d827ed7bdaf0d24U, 0x3e05c7bfbd8b28adU, 0x3cbc5453bd011b43U,
  0xbcd3bc593d04f096U, 0xbdb3db053e33010fU, 0xbd13107abd76bc76U, 0xbe2e2527bd2c1d2bU,
  0x3e64efd9bc39d8d0U, 0x3ddfa5623e21796bU, 0x3ea016ea3e53f6c7U, 0x3ebbc682be54ed79U,
  0xbe3e32113e4b8da7U, 0xbd5e5f86bd324273U, 0x3c369ca3be37b929U, 0x3de63e9c3deb78ffU,
  0x3e17de7f3ddc8fb4U, 0x3da6ccd43d421d65U, 0x3d8184f93ed370e5U, 0xb8c1aba4bd6d56deU,
  0xbd90c02bbe2e0070U, 0x3ce946f4bd8778f3U, 0x3d96e50f3e00522aU, 0xbdd8920abcbad5e9U,
  0xbd1f63243b123ecfU, 0x3cc80836bddb0b77U, 0xbd7983d5bd2953d0U, 0xbe284e1b3dce8c8bU,
  0x3e6246fc3ded3165U, 0x3c69c55b3d27692fU, 0xbdad42a23d22d3b3U, 0xbcc547863e750d7cU,
  0xbda03c4c3da39951U, 0x3dd6f6443c5a5c07U, 0xbd166c16bd384b3bU, 0x3c61b964bd454c85U,
  0x3d842465be0260a7U, 0x3d2327acbe542049U, 0x3d2c09bbbdacde5cU, 0xbd1f0a423d0c5704U,
  0xbcba2056bc0d15f0U, 0xbda77a85bd8697f3U, 0x3d0451a4bdbc68efU, 0x3da543973d462dd7U,
  0x3e85bf7cbc1c3d48U, 0xbdda4c88bd05f661U, 0xbd887fe3bc0729b5U, 0xbd6912433c2fd65aU,
  0x3df8d0fbbd678ee2U, 0x3d066695bcb8070aU, 0xbe3ca4e3bd4e4841U, 0xbe1c50983d28b255U,
  0xbe3a07aebd9f6e33U, 0x3d1b2c393c88df54U, 0xbdfe41163d4f0d5dU, 0xbdf72aca3e33c8c7U,
  0x3cdcc369be1ca3a3U, 0x3dc5e475bc1bd95cU, 0x3dbed033bd0080ebU, 0xbe4a2b65bd7d0be1U,
  0xbe668bc23dbfd591U, 0x3e350f0fbda6dc66U, 0xbe37ac8a3ca0dca4U, 0xbdbd7b143e444ca6U,
  0xbdec1e8d3d824aceU, 0xbe30c4a03e12c6baU, 0xbb35dcc6bc0c69f0U, 0xbe4ffd19be39a8fdU,
  0xbda35f4e3c82189aU, 0xbe1c4fe8be3b1079U, 0x3e3489b2bda10272U, 0x3dd35dc23d9e7bd1U,
  0x3d8929d33d4ea061U, 0xbc8cdee0bd77e379U, 0x3cbf996bbd3f64c0U, 0xbd95213b3df9037bU,
  0x3e892021be1aba53U, 0xbd6b0e873c59b968U, 0x3d8457c5bdd0a6f4U, 0xbc85273fbccbcd73U,
  0xbce00809bdb7f29bU, 0xbdb07117be10102fU, 0x3d8979eabd90585bU, 0x3ca7afee3bc4f312U,
  0x3ce58e733d7c5898U, 0x3ddb6dc03dbcd3f4U, 0x3ccb2ec13d8bb0e5U, 0x3e276a1ebc02a326U,
  0x3dfa16e43de8c41aU, 0xbd6f06053e2ec88bU, 0xbe2b4553bce5494cU, 0xbda2b26b3c06cad4U,
  0xbdb03462bd1ac0deU, 0xbe645c613df25062U, 0xbe0a8cc73e034ecdU, 0x3dc8c9b8bd98f794U,
  0x3d9ca68ebd8e0a9cU, 0x3e0795bbbcbf52a8U, 0x3da27e623d6b335dU, 0x3d109d67bcb347f6U,
  0xbe04d00abe519c41U, 0x3bc73c183cda7030U, 0x3e155d103cab6c13U, 0x3cbe0859bb80e541U,
  0x3d517c313cd4ff63U, 0x3e0ee4aa3da41e05U, 0xbd940d08bdc3ec7bU, 0x3dafa307bea53a5dU,
  0x3df86978bd8e6faaU, 0xbea3ffd8bd8a6c30U, 0x3d86b0aabdc1a3c1U, 0xbe0c0e8ebd1d689eU,
  0xbe69eec23d188648U, 0xbad749b0bdd3a39cU, 0xbeb35c8a3c5a5e40U, 0xbe9846b93eb41981U,
  0xbe2ed2a1be500e93U, 0xbe04d561bdfd8300U, 0xbd11213ebdc9a60cU, 0xbe0490d8bd891dd9U,
  0x3eafd5cf3e62b38dU, 0x3e0d5d67be1e7474U, 0xbe7450733d8a26dcU, 0x3d900eafbe2c4716U,
  0xbe3f2de43c9eb565U, 0x3d7555563cc0ddccU, 0x3dd13bdbbdefa46fU, 0x3da735d33eb56790U,
  0x3e7e090ebe1fedcaU, 0x3d02183cbe768ac8U, 0xbd4c33be3aa4a2caU, 0x3dcd7542bbc48d32U,
  0x3e701d813e858376U, 0x3e0ba1f23e53741bU, 0xbc42b690be2c859cU, 0xbe9113813d8ae851U,
  0x3cd5a1b53dc7357fU, 0x3dfdc3413d818a53U, 0x3e51c51b3e461c26U, 0xbe62bebe3e7ca2daU,
  0xbe53c1553dda8a8dU, 0x3c1957a93d208a09U, 0xbd550940bec01b97U, 0x3c8edda6bd5d76c7U,
  0x3ce42280bd31c0e2U, 0x3e508649be23fd1dU, 0xbd11d225bc55a306U, 0x3e882009bdfe16c3U,
  0xbdfbadeebdf9ae55U, 0xbdb233dcbea3549aU, 0xbcd2d6713d17f2b2U, 0x3e68759b3d9e7e50U,
  0x3e144907bd9621bfU, 0x3c0f0c143c4a363fU, 0xbd288de6bc500539U, 0xbca434cebd460e6fU,
  0xbd8da374bd915331U, 0x3d0c52ca3c98ce6bU, 0xbe1734ef3e358350U, 0xbd3e5520bddaaf8dU,
  0x3dbdb70bbe35daf1U, 0x3db1f9e5bdb741c4U, 0x3df326f6bd482de4U, 0x3e065f63bd3614b8U,
  0xbe384dd5bc85dcf4U, 0xbd6e9e67bb426fb3U, 0xbe096cbd3d062e88U, 0x3d8afc1a3df76d0bU,
  0x3e0ddf0c3d9ca822U, 0xbd8225a03e1114eaU, 0x3dd57a9d3e1fba2dU, 0xbe47c7a5be0bccaaU,
  0x3df25b9ebd1c5c8cU, 0x3dc5471bbb1b9dcaU, 0xbe08ec4d3d9b3361U, 0x3d376516bc2197cfU,
  0x3e429d8d3be31165U, 0x3d19c2913dd01493U, 0xbdc1144bbe23f7efU, 0xbccb88f9be257dedU,
  0x3df835a73d5d68faU, 0xbd14cfd3bd9f439cU, 0x3e44a2713cb48530U, 0x3e5b3a703d4bf437U,
  0xbd7f24193da6b236U, 0x3dc815483b4ce090U, 0x3e2b74bdbd58cf8cU, 0xbe2944f83dbe8de4U,
  0x3dcdf9dabe131ac7U, 0x3dff7ebb3da0f054U, 0x3d5a90083da25bbdU, 0xbdbd35853dcfeae4U,
  0xbdef47683e03fc41U, 0x3e1b2fbabc5931e9U, 0xbe42a614bde288cdU, 0x3cf6f6bcbd35e569U,
  0x3a37551a3e0a2a61U, 0x3d3c47c3bcd94ac0U, 0xbddb4c96bd92ef0cU, 0xbdbf5d7f3909ef76U,
  0x3d28e42bbd7b159dU, 0xbda0976ebd50db14U, 0x3d2c9d093d83d3d5U, 0xbdd2c8933e1d962eU,
  0xbe52e12abc0459b2U, 0xbe511fe13d5c03f4U, 0x3de41e0bbddcc333U, 0x3c14ca9cbded1124U,
  0xbd1da1c3bdcd1feeU, 0x3eac54db3d92ec6dU, 0xbcf28493be10efe2U, 0xbb87b1023dc0301eU,
  0x3da5de7a3dae425dU, 0x3d98bff93e12df86U, 0x3db917ce3d971762U, 0xbd3c5036be420dc7U,
  0x3da97f563e7c0857U, 0x3d5e0304be234167U, 0x3e340013bd8b1e35U, 0xbd26021b3e313743U,
  0x3c2e5f453e2a6ec6U, 0xbd83cb27bd2dca49U, 0x3c835c653cd12e38U, 0x3d2e51e3bd5a7fd4U,
  0xbcefc660bd693a0bU, 0xbd0715193bad4870U, 0x3e3ab4ddbd485d61U, 0x3e215acdbd00fe42U,
  0x3d2caf5d3bb09b50U, 0xbe5033bc3e57d6b1U, 0x3da634b13de96108U, 0xbc599380bd342a7eU,
  0x3cd7cac5bd18e0bbU, 0x3e6fb6873de65aabU, 0xbe6a50a3bd9baf1cU, 0x3deda4b43e719dc0U,
  0x3e83b252bdccc7aaU, 0xbe40adafbe4b2c89U, 0x3e83855b3de2291bU, 0x3cdd7af83db5ddc7U,
  0xbc7af6493e2a1bc9U, 0x3e49d164be279e64U, 0xbe3ffc95be166205U, 0x3e3ab58a3d579b9eU,
  0x3d5e2099bd36ed97U, 0x3e16d1303d43b592U, 0x3e1918c7bdac9740U, 0xbd664b81bd294010U,
  0xbd4ce5b3bbab2058U, 0x3db7ed31bc6bd5c6U, 0xbe8d9fa53e522196U, 0x3e3f0ab7bdbf4aa7U,
  0x3e78cb103d23388fU, 0x3cca03f23db3d2d6U, 0x3e2cc5dcbe6a6733U, 0x3cae32ffbdd0ede0U,
  0x3c5fa367bd67b262U, 0x3dcf7fe1be15efccU, 0xbd850a873d50dadaU, 0x3dee2f043e01002bU,
  0xbb97738fbc8f07d5U, 0xbe4907a53d900724U, 0xbdabb648bc301ef3U, 0xbea2e7cc3c3e4a23U,
  0x3dfbca0bbda34dc2U, 0xbe58def2bda78987U, 0x3daa8d0f3eb4da0eU, 0xbd5e3588bd85d516U,
  0xbdc0e9613c16465dU, 0x3d93fe743d0c81f4U, 0xbda4ab473db68959U, 0xbbbeaf2a3a915385U,
  0x3e939022be111c42U, 0x3e241df13d84bcb9U, 0xbe0ad1223e1fc398U, 0x3e8cffe5bcfa6a0dU,
  0xbd8f995abe1fc53bU, 0x3dfe05983c7f155aU, 0xbea385ee3c8c25b5U, 0x3dd71b183e07560aU,
  0xbd712112bc58fd7cU, 0x3dce42ebbcdf0bffU, 0xbe9912493e82ff05U, 0x3c856ce6bd999a13U,
  0xbe63db303de82fb7U, 0x3e3858c8be8db402U, 0x3caca31abd554a12U, 0xbde46ec1bd57b3d6U,
  0xbc35f5323deb1bb0U, 0x3d8d0a0dbdfc2801U, 0xbdbed88fbd3261edU, 0xbd917ec93d30e466U,
  0x3cfe857f3dee9042U, 0xbe177285bda474deU, 0x3e257d603d9270e7U, 0x3d883cc33d682178U,
  0x3dc7ccc7bd8bed2eU, 0x3d5cbe453dbdc6eeU, 0x3d93982c3dfaf5b9U, 0x3c15cc97bdedebc9U,
  0x3d8b7d8abc3cc7f5U, 0xbaf44fc2bd4af099U, 0x3cecd2593e0c7610U, 0x3c0ee4773d0ead5aU,
  0xbe216895baab566bU, 0x3df926bc3e7b76d1U, 0x3e178d4a3c9d9560U, 0xbde8d48bbc6fe90aU,
  0xbdebc4e03d624f76U, 0x3d1e890bbcb640c4U, 0xbdb722753d679a03U, 0xbd1001623d95cb1fU,
  0xbe1c1bd23e140e9bU, 0x3d308cebbcb2710dU, 0x3d0af6e23c97caa0U, 0x3d3bf85ebdefaed1U,
  0x3e14acf13e16561eU, 0x3cdac21a3c606228U, 0x3dbe2958bcbc182dU, 0xbd1bedf43dd4bb34U,
  0x3dd8b59ebd1499ecU, 0xbe348de4be0bfcd8U, 0x3daf957ebdc1558aU, 0xbd9bac48bd6910c2U,
  0xbe248464bd40e545U, 0xbdee12a9bdd58e2fU, 0x3d35159b3d2ecb3aU, 0x3d1a1f903e3c97dfU,
  0xbd2827723d4a7ae3U, 0xbd9a324d3d6d7d3aU, 0x3daf3b253e0178c0U, 0xbd9b0d4cbd2bf7faU,
  0xbe29161a3cb4ab9eU, 0x3d39b344bdc06433U, 0x3d8e93fa3c1d5c40U, 0x3c9cfcb3bdbfc0b5U,
  0xbc0ce6413e05cea8U, 0x3e0a8cbd3dd45b74U, 0xbe057ce13cbffec9U, 0x3e1a7dcf3d3b1a58U,
  0xbe0594d9bc9a0797U, 0x3dd2b74c3d8be2deU, 0x3d62bd3ebc5486aeU, 0x3d3a8d823c4bd3f7U,
  0xbdeb7f96be1d471aU, 0x3dd10098be0b73c0U, 0xbd80c134bd9c2363U, 0x3da6dbcabd662232U,
  0xbd954aaf3dfb1fafU, 0xbd881d71bd67c71cU, 0x3d66283f3e16d782U, 0xbd091c6a3b71f57cU,
  0x3d78f41d3dc8ad58U, 0xbb34451abd2bb998U, 0xbdf41020bda6fc35U, 0x3cfccae63d2f8b10U,
  0x3e035c683d181e60U, 0x3de8eb8ebd15011aU, 0xbde08fc4bdee83b2U, 0x3e17cd73bc86c8b2U,
  0xbdc115193db840cfU, 0x3df8a4d6bd48b848U, 0xbd3ae518bb457006U, 0xbd15fc0d3e0f3668U,
  0xbdbae3ff3d432d51U, 0x3dd88a9a3c8b3237U, 0xbdeb8904bdb52979U, 0x3904dd813d97dd55U,
  0xbd5bbdabbdf5d367U, 0x3d3cacefbb2e67b4U, 0xbd4505bc3cea62a6U, 0xbd33e8acbb8c278cU,
  0x3e07c0f0bc8d37e1U, 0x3d9d3b7cbe2020a6U, 0x3db77cc93de682c7U, 0xbdf4a9ccbdd60f9eU,
  0x3d48ad2c3d452b02U, 0x3cd4b630bdddee0bU, 0x3d9f797abd841fa2U, 0xbe0faea3ba243b29U,
  0xbda3ff4cbbd92027U, 0xbddff628bdce3f3aU, 0x3d9e6a2fbdbc1221U, 0xbdbdf9c03cc9cec6U,
  0xbd997400bd88558dU, 0xbd9c3789bd29043cU, 0x3ddc522fbdac06f2U, 0x3de14280bd81eb2cU,
  0xbbdb78d83d9fc1e5U, 0xbc9026bd3dc4d94cU, 0x3e0e0a10bcfc5f4fU, 0xbd404ba13d42674dU,
  0x3de7787f3d227a81U, 0xbc9f332c3d9e0618U, 0x3d8c59c3bd62ad18U, 0x3d7889fd3c4cd4d1U,
  0x3d60fdb63dfe48a9U, 0x3d529ab2bbb57f3aU, 0x3e0186773bdb49ceU, 0x3daa61cd3dcf76b5U,
  0x3d4ac12b3db30cbfU, 0x3d2a547cbcd59626U, 0x3c5fe71e3c981cb7U, 0x3dc5dbc53d44d4e8U,
  0xbe02b0b73dc3817bU, 0x3e0d8a1cbc8841b0U, 0x3db5936f3da9beb8U, 0x3cc8fa53bdc27651U,
  0xbc8cf8b2bdc4cf13U, 0x3e14b5083e0229c5U, 0xbd440ebebd85d6dbU, 0xbdd107b6bd69dc1eU,
  0xbd92413bbde632b8U, 0x3de226783d30f7a8U, 0x3d865b303de2ec75U, 0xbc173a33ba78d043U,
  0xbdd4d72bbc8888f8U, 0x3cef56483d7f9f04U, 0xbdc6fd963da261e6U, 0x3d6eec883dd187b8U,
  0x3da157623dd58c24U, 0xbd80a706bb8ebd40U, 0x3dbf5ede3d511b20U, 0xbc6b31603de2465eU,
  0xbdc0320f3c56a200U, 0xbcbfcd3c3d1b6b00U, 0x3ded1d66bcd702e8U, 0x3d506ec43d0bd624U,
  0x3dc4bd303c2e53d0U, 0xbc2bf5103db2e430U, 0xbc9f3334bd63d86aU, 0x3dc1a33e3df6116eU,
  0xbc4d16a03e05e221U, 0x3e0751e93d6b56bcU, 0xbd53a93cbcff76b8U, 0x3dd1146e3d7d584cU,
  0xbdb008fcbdf78e3aU, 0xbdb900adbd60ff4aU, 0x3d888c003d38ea04U, 0xbdc6503d3dbd8fd6U,
  0x3dbe17343d85888cU, 0x3deb41f63dc9f556U, 0x3df88e7abe002c64U, 0xbe0881d2bb5169c0U,
  0xbe019dc6bd69cb92U, 0xbc4cde40bdebd7b8U, 0xbd43803c3d445d1cU, 0xbd923e2ebd97a8deU,
  0x3e0adb0f3dc5582eU, 0xbd487f8ebdd6f206U, 0xbda5efdbbddbd162U, 0x3d42bd48bde62f9aU,
  0xbcd36a4cbd7f6f2cU, 0xbe03beb53e049fffU, 0xbd8dd03dbd258db8U, 0x3e040f633dc05698U,
  0x3daa92c83d62054cU, 0x3e009a053d2973b4U, 0xbd8a9f063daeabdcU, 0xbd9d0bfc3da14b1eU,
  0x3bdf3d203d061e08U, 0xbd85a407bdbcba41U, 0x3de1bcd8bdc7760eU, 0xbd87f274bdc732b6U,
  0x3da770603d74bf10U, 0x3df5b57ebd5dfa3cU, 0xbde5f0cb3cbe3180U, 0x3daa8cb63d8bdaeaU,
  0x3bb83e60bc66e260U, 0x3d858d983dc1aaccU, 0x3d8dcab63d89ce2cU, 0xbdae3bedbe0eba37U,
  0xbc6add403bb666e0U, 0xbd3328eebd437cecU, 0x3d28fbf0bda6762eU, 0xbd419da03dc034ccU,
  0xbdaeba8e3d2b1404U, 0xbc6c1120bdfdb90eU, 0xbd19ced63d73bcdcU, 0xbe094bf73d473fccU,
  0xbdd9ae0c3cbed248U, 0xbcba8f843dc6bad2U, 0x3c8803783d425208U, 0x3dacc482be05248eU,
  0xbd481fac3d183a74U, 0xbdb42d833d8ec790U, 0xbdcc3194bdef2be6U, 0xbe072d2d3d8049bcU,
  0x3d70c220bd8aeb79U, 0xbd00e0b4be0e1511U, 0x3c309fb03d0e3a48U, 0x3e05f54d3d605c28U,
  0xbdf038d23d9d1e64U, 0xbdcc8f21bdfc3269U, 0x3db8894abd10d164U, 0x3d7a76dcbdb0e220U,
  0xbd513870bd67612aU, 0xbd6ef0e43dd16e5aU, 0xbd497e8ebd907c5aU, 0xbe04d2043d1c3ef0U,
  0x3da6391ebcdb96e8U, 0x3dbd5c5e3d515724U, 0x3b223140bde9e58dU, 0x3cde6b38bddc0f56U,
  0xbd165ac83df7efe6U, 0x3d7c1f44be0147ceU, 0xbd96d82cbd591eacU, 0x3aae5b803dd31858U,
  0xbd6d35c0bdbaec2aU, 0xbcf13260bdc999caU, 0x3dc58692bc441ed0U, 0xbd94ef01bd82a6bcU,
  0xbb8426803da5c78eU, 0x3dc7e946bd9bb50eU, 0xbcc5a34c3d820e76U, 0xbdec45133dd801d2U,
  0xbd983a0abd8e3fc6U, 0x3e0c17ab3d67b0b8U, 0xbc5fdc803c1e7c40U, 0xbe0984463ddbabc4U,
  0x3d2df544bbf0e5a0U, 0x3d9245d6bdb31b2aU, 0x3d134658bde9bd48U, 0x3ca2a7f8bc7e5680U,
  0x3dc6c2b0bc2c3140U, 0xbdd560aebde81a9aU, 0xbb756c403e0a45b3U, 0x3c4f6d603d8ddd46U,
  0x3c3538d0bc38cbe0U, 0xbbec5360bd8ab7a8U, 0x3c8c9c10bdf24d22U, 0xbbcee2403d8da394U,
  0xbe0583cebcdd36a0U, 0xbaa91e803df438caU, 0xbdcaa95dbdc231a5U, 0x3cb000f83cb624e8U,
  0xbcd203e0bdfcc162U, 0xbdc26386bdcdb660U, 0x3d87431ebd1c2b14U, 0xbd4e9448bd19d92aU,
  0x3d008304bd7654aaU, 0x3dd3161c3e0b4a69U, 0xbd61bbc8bda2a695U, 0xbde1389e3deff9f6U,
  0x3d381788bdf0b2e5U, 0x3d573bc8bd94c7bbU, 0xbc87bcfc3dff04eeU, 0x3c95ee88bdfebad9U,
  0xbd954391ba635d00U, 0xbcd99bc43d760ad4U, 0xbcb68becbdec890cU, 0xbe0c1518bcb5195cU,
  0x3daa0dc0bd8e1906U, 0x3e04435b3d05bd74U, 0x3d96fff83dc04990U, 0xbd5c024e3b2b4f80U,
  0xbc2e83403d61a778U, 0xbd3170323dd924beU, 0x3dce64fc3c130ac0U, 0xbd87daccbd808460U,
  0x3e0a1f03bd8960ebU, 0x3de3ac323dde1e96U, 0xbe05de963cc07890U, 0xb926dc00bc6107f0U,
  0xbdf883dc3e0bace3U, 0x3dd2340abdb06adcU, 0xbbf609403bdf0e00U, 0x3dac28743d522150U,
  0xbddedcf8bcaa1f20U, 0xbd9bf30f3e038973U, 0x3d838f123daf892cU, 0xbd9681e6bcbe3748U,
  0x3d75a2c83db3a59eU, 0xbe0485da3df392deU, 0x3c5814903d81f532U, 0x3d92fa5cbc760f18U,
  0xbd9440c4bd8946aeU, 0xbc0891f03dbd3c48U, 0x3dd3fb963ddd1b50U, 0x3db8cf0abe07d328U,
  0xbced56d43d17e944U, 0xbd9a24b53dc1b12aU, 0x3d6fa3dcbdb6c6b2U, 0xbdcf8fb83b52d300U,
  0xbd1875d8bda3b53bU, 0x3ac68e003d873f74U, 0x3da67724bc4b2170U, 0xbc1315603c4ca0b0U,
  0xbd896483bd880057U, 0x3d47140c3d906a3eU, 0xbc08c120bce03c44U, 0xbc8ca630be0b450bU,
  0x3dd56268bcfff8ccU, 0xbde78ff83e05ed81U, 0x3de5b25ebd3e3ea6U, 0xbdfea9c4be021d00U,
  0xbd87e0f9bdf4f97aU, 0x3c8963983d5c4570U, 0x3c486f103e0c26ebU, 0x3d88d8da3d88b3a0U,
  0x3d940b6e3d9ebefaU, 0xbdff891a3ddd963aU, 0x3dd903403d61b77cU, 0x3aac6c80bdedd06eU,
  0x3d82d5c4be0bb2f1U, 0x3d1ddd403c6e44c0U, 0xbdafa34e3dcc74a0U, 0x3d8e721cbd6f5ba2U,
  0x3e0e6abfbdb3a95fU, 0x3d4b35843c47a5d0U, 0x39ffc800bcb13bc8U, 0xbdbf53443dc4b446U,
  0x3d2774cc3d87c59eU, 0xbd741eb2bda236b2U, 0xbb96bba03df3564eU, 0x3d8f11fc3df9b866U,
  0xbe01c2213d1e078cU, 0x3cbd2e40bdb3fdf8U, 0x3dabe9b6bcd17b38U, 0x3b5372c0bb1a09c0U,
  0xbde6f53cbdd0f668U, 0xbcdf2d4c3dd4b016U, 0xbd5288d0bd81961dU, 0x3da45d8a3ce86318U,
  0x3dbdac0fbd3e7cd0U, 0x3e4d21ddbdaa0df1U, 0xbdc6c04ebdb8b682U, 0x3d2d256cbd666153U,
  0x3d8ea5aa3d2872fdU, 0xbde093a63ea9edc4U, 0xbd519a5f3e914c65U, 0xbd07461f3d195de2U,
  0xbd6fd574bc17110aU, 0xbd9f3ef8be81d0a8U, 0xbc4e67a43e2040c5U, 0x3e9fd0813e866cb1U,
  0x3d86dc993d9a1093U, 0xbdfe8bf7bbf8a92bU, 0xbcaafede3da956b7U, 0xbe320ff13dbda2ccU,
  0xbdc1ee003e73e69cU, 0x3dab9a4fbd6f3395U, 0x3d3ff8383e2e3c5fU, 0x3db853543e6cf927U,
  0x3de0abbfbe08fa48U, 0xbd9861563d1a0facU, 0x3e31e657be854291U, 0x3e032c2a3dd355dfU,
  0x3e9b6a1f3d90c9adU, 0x3e8f0d49be472461U, 0x3cba05ce3e1c3438U, 0xbdc704833e39c61fU,
  0xbe5bc955bb88f7a9U, 0x3e5428b03d62864bU, 0x3e2471803d912bc6U, 0xbd92af003e8298a7U,
  0x3d48dfff3dbc4e17U, 0x3e22da97be2feb95U, 0xbc8c8352bcf316a6U, 0xbdbd1aa3be1b3b9eU,
  0xbdfbf6f5bdae5993U, 0x3d26e5853d1c1f7eU, 0x3e207692bdba0d76U, 0x3d7cc4503dc2aac3U,
  0x3d0d02583db602feU, 0xbddae6533c3856e8U, 0x3d1a34913c637190U, 0xba1afe3ebcdc84d2U,
  0xbdf5a5bc3b08244cU, 0xbccaca93be19ff95U, 0xbcbbcc24bda54d32U, 0xbd3031b93c5fcdcaU,
  0xbced4d5a3de3ca87U, 0x3d5313e2baf9a857U, 0xbd35a80f3d9d8321U, 0xbd07add03ce3b9dcU,
  0xbe05d676bda8be55U, 0xbd010533bd4841f0U, 0xbdf6a3173dd39217U, 0xbbef9fc63da6c9d8U,
  0x3dbd78d13e78c80fU, 0x3d9556253ce39dbeU, 0x3dc766f5bce7cef6U, 0xbe0603633dafea6aU,
  0x3e024f8f3cba1756U, 0xbdc7256a3cb863c9U, 0x3e456be4be226c94U, 0x3be0d2733c8cb643U,
  0x390dcb06be1d51dcU, 0xbd7e43d5bd6e12a1U, 0x3c066f963d5f5211U, 0x3dcda15bbd33dc44U,
  0xbe0119163e12edb9U, 0x3e42c4e5bc59e4a2U, 0xbcbd4bb2bdac117fU, 0xbcc861f2be54ac79U,
  0x3e1271203d364321U, 0x3d16b733bde4c767U, 0xbd060f203e081276U, 0xbda71d0abd8bf1f7U,
  0xbd301047bc920774U, 0x3dc8b5e8bd1d4f09U, 0x3e109dd23d640dbaU, 0xbd898e0f3d4ece3cU,
  0x3d4949a1bd4fdb29U, 0x3d605192bde72fd8U, 0x3df1e393bd3de5deU, 0x3d8aafa8bddbc5b4U,
  0x3d7842263d146074U, 0xbe193c6b3b6df0aaU, 0x3e20bb72be5e0ad4U, 0xbe1556e8bdd6f036U,
  0xbe2ead2dbde2f0a5U, 0x3de167f0bd60de48U, 0x3d0072b5be08255fU, 0xbe0bb8d83dad9bccU,
  0x3d3803903d36f8cfU, 0x3d43bfe3bc6e1ba2U, 0x3c4f1567bda7a7b0U, 0xbd2a5f93bc36df44U,
  0x3e073aabbddaf463U, 0x3d7726f2bde8ab8aU, 0xbda672f9be090818U, 0xbde3a24a3da6a0b1U,
  0xbca21295bd506d45U, 0x3d9d2a80bd3eac82U, 0xbd74d9b8bd549577U, 0x3cc9f95abe0233c2U,
  0xbd7f929d3e1b6e75U, 0x3ef375fc3d769ef6U, 0x3d070f06be1ca6c7U, 0x3e2875053e3e3531U,
  0x3ddfd536be6e11bcU, 0xbdc866203e9f7334U, 0xbd4dbd60be4df49dU, 0x3e061587bd937b80U,
  0xbea5cc5e3e8f29fcU, 0xbc30d374bdca6010U, 0x3e0b83413e33789dU, 0xbd9919783d056ddbU,
  0x3d7c0658bd4c5d88U, 0xbe6220663d50ef1bU, 0x3ddb53e7bc6e8b4cU, 0xbbb54c27be7c3e88U,
  0x3db20cd33e2af95cU, 0x3e993b233d9a0b0bU, 0xbe0385403ddf857dU, 0x3d0666bcbd4682ddU,
  0x3dc6b8dabddfaab9U, 0x3cf45cab3dc12eaeU, 0xbe2173833c39a3d1U, 0x3d17e6a93e0d32acU,
  0x3e84ee9f3ec67a52U, 0x3d8ffcebbd8ed740U, 0x3d1699f73df0457dU, 0x3cc5d74a3da74fa7U,
  0x3e3f81843b3b05ccU, 0x3dd2aa8b3c07fe63U, 0x3c1c8f883d0fe8afU, 0xbd477aaebcbbcdaeU,
  0x3d318ca63dcdc9abU, 0x3deaf07b3e28ab62U, 0xbe98a064bcc1a86aU, 0xbe86bd84bdc841b8U,
  0xbe0d9a8ebe291c7eU, 0xbc7094e53eb2c783U, 0xbdd5b354be72123bU, 0x3e4fea013d94cf90U,
  0xbe4dacdd3d9ee88dU, 0x3e811bdabe1d1eb0U, 0x3dfe59edbe0228b3U, 0x3e9bd30d3d47157fU,
  0x3deb53663e19953dU, 0xbad1cc753d5a99a3U, 0xbd2e17a13e7c3674U, 0x3e198cb53c96970cU,
  0xbb36c3123defac48U, 0x3c30dca0be1baa37U, 0xbe26a77b3dff9b7dU, 0x3e867e723d71b516U,
  0x3d44a8febd606448U, 0xbc807246be20248aU, 0x3e162162bd1913cdU, 0x3e257faebdc3956bU,
  0x3eb2beef3e68808cU, 0xbd970ae5bda6158bU, 0x3d853fed3e78e7c4U, 0x3ccc8b4b3d6a8bc4U,
  0xbe03d08f3dae452dU, 0xbe1932363e0a3c2fU, 0x3e7f23473d34ba6fU, 0x3d9bb6d63e569468U,
  0x3e2330003e8e895dU, 0x3e6e752cbdb00ca1U, 0xbcc9ab6ebda6d400U, 0x3e0f08a53d980c8fU,
  0xbd6b0b743d370599U, 0xbdacc9763e7c47ebU, 0x3e5a08e1be8b19a4U, 0xbc8e0f643d6152a7U,
  0x3c6aceaa3dfc7d68U, 0x3df430bb3e000106U, 0xbde706ed3de3be7fU, 0x3dbd15ca3e175765U,
  0xbce00989bdc9575aU, 0xbda0b1033c8c116aU, 0x3d56eeafbd32703eU, 0xbd3a73743cd412c9U,
  0xbdb3ed323df187b2U, 0xbce27ffabd2f92a3U, 0x3e3aa0c4bd3e2d11U, 0x3d3732edbcc3972dU,
  0xbd62c52dbdc0ce0aU, 0x3e257dcabe69bfdcU, 0x3db5294b3ce22b94U, 0xbdd753a0bdc13d72U,
  0xbe1820723d0638d4U, 0xbd6184e43e1d8297U, 0xbd7bd16f3e34edb6U, 0xbe319fd4bd8a26c2U,
  0xbe00f8c0bda071b1U, 0x3d846a263d6bcb1eU, 0xbd9d56af3daf2be4U, 0xbd8a3003bd8a3121U,
  0x3e46c118bd99002dU, 0x3e2e2816bcd30287U, 0x3e4823243e326c0bU, 0x3e501864bcf99dabU,
  0x3ca344ec3de87fa8U, 0x3e2c81bc3d10254aU, 0xbe3acd46bc4d1ea1U, 0xbdf184b6bc92da75U,
  0x3d8af38e3d8c465eU, 0xbdfe630ebd153594U, 0x3cea2f68bc1af980U, 0x3ccc31b83e03a3f1U,
  0xbdbe47603d008f18U, 0xbccde1fcbe0c2d39U, 0xbcacf190bdc87714U, 0x3e013123bd88431cU,
  0xbd8dd1ca3de7f3d2U, 0xbe00ec16bba015a0U, 0x3dcc7878bdd5426eU, 0x3db632f6bd9f6764U,
  0xbd010988bbbf5900U, 0x3d20fca83c29df60U, 0xbdf5c50f3d0090a8U, 0x3d1824043d1e9c18U,
  0xbde94b523c715a20U, 0x3b81f9803d3a4e60U, 0x3bf345a03d52b738U, 0x3dd13d103d892814U,
  0xbdc5d037bdc78a4bU, 0xbe0381c43ce1f1f8U, 0x3d0935d43df8213aU, 0x3d1831c4bc92a138U,
  0xbdf476353d8a0c5eU, 0xbd9a77ab3de3aaa6U, 0x3d99e3ca3dbb4ef6U, 0xbdabfd52bdb5ab98U,
  0xbd87142b3c38e520U, 0x3e0d9e3d3db4373eU, 0xbd32a4703d2a0430U, 0x3c320160bd66798aU,
  0xbda95b0cbceaa0e0U, 0xbbac93803da13902U, 0xbd681562bdbb0c90U, 0x3d558408bdf6f26eU,
  0xbc0f0cd0bbad25c0U, 0x3d196eb43d55a7f8U, 0x3c1f2a90be078042U, 0x3e05f201bcd0b23cU,
  0x3d40b0e0bd2f8f5eU, 0xbdf07b7c3d7db694U, 0x3d2c70d4bb61b200U, 0x3dd2de32be0a3fd3U,
  0xbd367c26bd9f9216U, 0x3be702a03d2db940U, 0x3dc0e5a8bdaea844U, 0xbd4454e03ded3b02U,
  0x3e0b994f3e00351bU, 0x3d0a8abc3ca2d710U, 0xbde91ec83d0186f8U, 0x3dd26e3ebc154fa0U,
  0xbc3dec403d267f1cU, 0xbde644adbdf12c84U, 0x3cd9a810bca57020U, 0xbc2bbb50bd284772U,
  0xbe0a4235bdc985b1U, 0xbcfe9de43d323fd8U, 0xbd801c60bd8f999eU, 0x3d8ad1f83b332200U,
  0x3b7832003d2dbb48U, 0x3d907f18bd0c3dfeU, 0x3cdd7730bc1b1a10U, 0x3c181b403d4159b8U,
  0x3d916d02bd4903e0U, 0xbd763fc23e05f36bU, 0xbddc93a2bd837616U, 0x3daeeb563d957e6aU,
  0x3e024b013d09df18U, 0x3dbb7942be044f83U, 0xbddac6bbbd8889c0U, 0xbc9ee124bdd62cd3U,
  0x3d1fb3dcbdf1b208U, 0x3db6c086bdf98529U, 0x3b6328c0bdbfb038U, 0x3c147a60bdd356feU,
  0xbd64ff32bdefe7b6U, 0x3de51a22bbec2ea0U, 0x3d02c37cbdc29f00U, 0xbda767a8be0730b3U,
  0x3bbff660bdc9e764U, 0x3b28e540bc0e7dc0U, 0x3dfac9d63a8cb880U, 0x3df70a8e3c232c40U,
  0x3df734b23cc12c10U, 0xbe0e2a00bd4c0442U, 0xbe017471bdcc11d0U, 0xbd2127283dc32f44U,
  0x3ccc65a83dd652b8U, 0xbd15003a3dbe1134U, 0xbcc617b03c1e7e30U, 0xbd7175203df2f1b2U,
  0xbdec23203d957530U, 0x3dc00dd2bc99b280U, 0xbb638700bca4c8dcU, 0x3ddfa7bcbdf197ddU,
  0x3dafa6dabc89566cU, 0x3d2c8160bdb3f604U, 0xbddaa4c8baedf200U, 0xbd2c2d00bdb2ed12U,
  0xbcf95df0bda5274fU, 0x3e090471bdb931c6U, 0x3db9b45239f5d600U, 0x3d8a55043de5524aU,
  0x3babb9113e0807bcU, 0x3e8ddecb3cd04ad2U, 0xbe529219be2d4837U, 0x3e3f74633e0fe89bU,
  0x3e0b038bbe9ed294U, 0xbeec00913f61f451U, 0xbd706dec3ec684f1U, 0x3c863c45bcba0dfdU,
  0x3e13d9443e359536U, 0x3f11d415bea588eeU, 0x3df17d3f3dc24319U, 0x3f1f88313e100b47U,
  0x3f03d7303e9005c2U, 0xbe4131f2bdcb3fc8U, 0x3ea289393e365447U, 0xbd240481bb3c2145U,
  0x3cb22c443f0faeb4U, 0x3e3363aebd3b20c9U, 0xbe1448f43ee4e872U, 0x3bdaa0143eb93013U,
  0x3e5b3a71be03683bU, 0xbe7512a93e9f171bU, 0x3e558ebf3deba760U, 0x3e545270be4068b6U,
  0x3ede986c3e47bc81U, 0x3f0d11ac3e8baa7eU, 0x3d399a9fbd962552U, 0xbe155f253ea3cec2U,
  0x3eef9799be22e6e3U, 0x3e39b73f3df3afdfU, 0xbe228cfd3e9846b7U, 0x3da975b03eccb882U,
  0xbcdc870f3e65e0daU, 0x3eab104b3cb775f8U, 0xbdb6b4babd9f4aedU, 0xbe99f35e3decdeacU,
  0xbe1a3289be51960cU, 0xbe94f296be58213aU, 0xbdcec20dbe6a8977U, 0xbd4d2648bde384aeU,
  0x3d8400b93ec40af9U, 0x3f1ae0113e2a8286U, 0xbe16a892bd3fc4deU, 0xbdff1f873cb1b4f9U,
  0x3d68131abc1e5944U, 0xbd02504ebdd8a16dU, 0x3d6194963d03ead7U, 0x3d1d46b6bd6bb5d2U,
  0x3d8d7d583eb0f20dU, 0x3dc41f703c8a8ebeU, 0xbe40b1debe82bb7bU, 0xbea9474fbeb2a96bU,
  0xbb36c78dbd97b321U, 0xbdb117b73e3be80dU, 0xba935f523d80c7a4U, 0xbd30e9123dc9ef3dU,
  0xbe72e2503df90aeeU, 0xbbca1824be886364U, 0xbdb4015c3e21d895U, 0xbdb5f3e83c6eb09dU,
  0x3d472704bd93fbecU, 0x3e89296fbdb86979U, 0x3c852c23bd77e53bU, 0xbe2cfdf8bc1945f9U,
  0x3d459fc2bcedb49cU, 0xbd8f24533c8670c2U, 0xbd264988bd909ae7U, 0xbe0d4b2c3d722da0U,
  0xbd357df5bdf98273U, 0xbe288e8d3dea6033U, 0x3d662a16be7ff3feU, 0x3e0b12733e633ec5U,
  0xbcd22c25be70fb3eU, 0x3bff93acbe2b6800U, 0xbcc0fa94bda1cef4U, 0xbe5cbf07be050138U,
  0x3db7bc51be696418U, 0x3c3831393ced314eU, 0xbb89f3583e05d842U, 0xbb17d3543d8d6775U,
  0xbdc5bd113d2df937U, 0xbe0fe059bd688df4U, 0x3cb33890bde08ea5U, 0xbe0c6299bc470520U,
  0x3d094c28bd3a2966U, 0x3e045c4ebd843e51U, 0xbd014475bd50a4aeU, 0xbddb0a74be3b53b9U,
  0x3deb74543e0d481bU, 0xbca0002c3e8e9706U, 0xbe260d5d3b76e149U, 0x3d568edbbde3bfb0U,
  0x3d5661963da2c1a1U, 0xbe02058e3cb4fe06U, 0xbd43aa203ded35c0U, 0xbd17d20d3e0190abU,
  0xbdfa2b53bcf55868U, 0x3e01d4cf3d366dceU, 0x3d64c5633e2b9b7aU, 0xbe1234f63cea03d6U,
  0x3c9305d1bd456b57U, 0xbd9d19e5bd9ccb15U, 0x3d3f5bfbbddb1e4eU, 0x3e24c875bdef973eU,
  0x3e081e7f3e12a315U, 0xbe7e36df3d476f1cU, 0x3dafe6c6be48d8cbU, 0x3e1b132b3e0e8cf5U,
  0xbead52e53ec149d4U, 0x3d29d8d6be846f30U, 0xbc1d1e3ebe83f9b0U, 0xbe22f094bc992f22U,
  0xbdb5a647be5f4eadU, 0x3ec47ac93e6d5727U, 0x3ecd71aa3ea6cb3cU, 0x3e30367fbe02f544U,
  0xbe054c983e94654cU, 0xbdbd00a7bd0b43e1U, 0x3c0d46873b6c302fU, 0x3bbcbbacbdabe4ecU,
  0x3dc37eba3ddff85fU, 0xbd8bbe193e89278cU, 0xbd560f28bcd98b17U, 0x3e0eba95be18b22dU,
  0x3da364d63cc4d0cfU, 0xbe88e1a3b97071c1U, 0xbd7c120c3dae5828U, 0x3e985978bd765a33U,
  0xbe63654cbe1df21bU, 0x3da2e9c6bd42e584U, 0xbe2737993da5792eU, 0xbdc87d773d92c1ffU,
  0x3de5a026be79f72dU, 0xbd6529073d1fed64U, 0x3de98a13bdb9cb9dU, 0xbca62bf6be4ea310U,
  0x3dbc7fe23e819e68U, 0x3cfe352ebe810787U, 0xbe96ed89bdbd3f03U, 0x3cedda193d99bf54U,
  0xbcd74623be5ead97U, 0xbd6f74063e0e5c7fU, 0x3e04dce0bc0ede1cU, 0xbe15f6c53ca5e903U,
  0xbe74fcff3c361acfU, 0x3c708556bdb9477bU, 0xbd3cd7e9bcd61ac3U, 0x3e04c4c63e14ef48U,
  0x3d915528bd87fc90U, 0xbdad95b2bd4cfda6U, 0xbd11da7bbe3c6aedU, 0xbda20ad0bcd4dbf3U,
  0x3e205ff1bd81a001U, 0x3d2b9487bd01dda3U, 0x3c877df43dba8cb1U, 0x3e6b255ebc0ead0fU,
  0xbdda16633ce82a9fU, 0xbc4bdf29bd869377U, 0xbb2a504cbe82e02dU, 0xbd3817eabc73afcaU,
  0xbe281c3bbe214bc7U, 0xbdbc0785bceccd06U, 0x3e18290a3d683e94U, 0x3d8df958bc33492dU,
  0xbe77418cbd33f618U, 0xbcda7712be0c07efU, 0x3e08e7b0bd11d92dU, 0xbcb7833a3d24d49bU,
  0x3d801fa5be30a247U, 0x3dce26f8bdcc4f50U, 0x3d9a2e1c3c3c7468U, 0xbc5059233d1617aeU,
  0x3dbb133f3dfa9069U, 0x3da4d7f3be2ec7f1U, 0xbd76bbd9bd25390eU, 0xbc4401c43e0f1705U,
  0x3d2170f03cb120f2U, 0xbd9a90f93dacd416U, 0xbdf5487d3e131b7aU, 0x3dd2f5ff3cfaf6d2U,
  0x3c705885bd488c76U, 0xbd793ac83dafd78cU, 0xbd5577df3d5d30b8U, 0xbd68b034bc88776aU,
  0xbd43f3603dc26d12U, 0x3dd0dd43bd14dbd9U, 0x3dadfbe83e745a06U, 0x3e0f2a0dbd361a82U,
  0x3d644f4f3d9c0419U, 0xbe2390afbe105143U, 0x3dbe157bbe5d4b73U, 0xbdc079f3be28d79cU,
  0x3e74217b3cb01781U, 0xbcc0b773be1dca0dU, 0x3e692fe0bd78e35cU, 0xbe00032ebdb7f4b8U,
  0x3d98af2a3d89f6abU, 0xbd669e4abc2db787U, 0xbca4acfd3e0006b7U, 0xbdaf5fb4bdf19b5aU,
  0x3e03bbff3da916a2U, 0xbdb11954bc0ff4e2U, 0xbdb4c8d83d1e5141U, 0x3dd70d89be0bc4fcU,
  0x3e06a0733d26fbdaU, 0xbd90bd66bc2b7af7U, 0x3e1b39343da04a26U, 0xbd4a25053dbc31c2U,
  0x3e955e193c8248a0U, 0x3e18d9a83e0c9e5dU, 0x3d9c4d92beaf9755U, 0x3ee786083e8ba7e1U,
  0xbe7813073ebac4ebU, 0x3dcd158abdcf5ea6U, 0x3deb9325bdcc63c6U, 0xbe5f6a7a3d897d82U,
  0xbeacec0abcf5a256U, 0x3dbb7e903e07994eU, 0x3f0ea3b03eccf8f3U, 0x3e6d56e4bdec14feU,
  0xbe6b3d343f12781aU, 0xbd9a12aa3dc1f754U, 0xbe869970bb450516U, 0x3dda5caabe012516U,
  0x3e92559f3cc60c05U, 0xbdadad063f048c30U, 0x3e5481143e099655U, 0x3d5f7c48be1de7ffU,
  0x3d9d4052be195db3U, 0xbc0fd567be8fbdd3U, 0xbe877db93e68fe61U, 0x3eb949efbd0b7508U,
  0x3e5baddf3d944327U, 0x3db7d6b1be133db5U, 0xbd95a3143dd6a47aU, 0xbe955fac3d8511c4U,
  0x3e32ece43e045319U, 0x3e637dc93dd3b203U, 0xbd95c6e63e5e4c6dU, 0xbe2d47703be853f9U,
  0x3d081b02bd8f0218U, 0x3b8e7011be4b5b78U, 0x3ca3d658bddd65caU, 0x3dad5331bb397d3bU,
  0x3ec14a163e46254bU, 0x3c1214143e26c310U, 0xbda7b8bdbedb5b74U, 0x3d096c90bdcdd717U,
  0xbc549173bde74c7cU, 0xbd1011e2be785548U, 0xbe454eddbc8d4310U, 0x3e2783bcbd721e66U,
  0xbd708aee3d8c58c8U, 0x3d86c2aebea93460U, 0x3a9fc565be359855U, 0xbce1fd1e3d71195eU,
  0x3e3356383d050c85U, 0xbd59b6653d733941U, 0xbddc01273e76f775U, 0xbd80d1ccbdf2a3deU,
  0xbdfb68303d91ff28U, 0x3c1da903be4741c7U, 0xbdef0025bd809625U, 0xbb2ee7853e92fe7aU,
  0x3e63b42abe27cdd1U, 0xbe10e4bdbd17e099U, 0xbd390097bd035a26U, 0xbdf08cdc3cb0e105U,
  0xbe5b13bfbdd31a96U, 0x3e18e3d4bd9779c4U, 0xbe9953903dccd7a4U, 0x3ba5df703e196c56U,
  0xbb81e756be7328ebU, 0xbbb373d83b3c504fU, 0xbd682d55bdd40c4cU, 0xbdf64aa83da211d8U,
  0x3bf34d1c3dd73cfbU, 0xbdb3858cbebd4ce9U, 0xbd0d92d1be3a7010U, 0xbdfd84463e077bbfU,
  0x3e03caab3d86dddcU, 0xbcd52ce13de7134aU, 0x3dfef73a3c51f7afU, 0xbdbc2b953ea7b92cU,
  0x3d04cf97be0eaea0U, 0xbea774883e05763aU, 0xbe32d1bcbdd289ffU, 0x3d88ed1fba5d78bcU,
  0x3e001091be332fa4U, 0x3e0d1b3f3d31960aU, 0x3d85ee49bda2c152U, 0x3deeea213d2d1640U,
  0xbd458639bd86c3abU, 0xbbfaa959bc1d8aa8U, 0xbd1e679f3dc812abU, 0x3c7a03753c02552fU,
  0x3df1498cbd97121fU, 0xbcdde53f3d4d3327U, 0x3e0a54823dc15d73U, 0x3e00805ebd15abd0U,
  0x3e2a33a0bdda2527U, 0xbdf130cabd5b0d12U, 0x3e49886bbd07746eU, 0xbde4979d3ce886cfU,
  0x3c32c8cc3b0d140bU, 0x3ca2c04d3deb1da7U, 0xbd7606923c8f8c35U, 0x3b9242bbbe2459eaU,
  0x3c9e0e093db0a351U, 0x3df507893e2c73a5U, 0x3e4ee9353e27d94fU, 0xbe01c9dbbd59815cU,
  0xbc393b60be06d902U, 0xbdadc18abb8e98a0U, 0x3aef6000bba0d700U, 0xbe0c19b1be0277d2U,
  0xbdc6412a3db3be26U, 0x3dfcc30abdc1e433U, 0x3cb572403d6958d8U, 0xbe0b6062bc75d3e8U,
  0x3d40883cbd0cb100U, 0xbe03f3583d3386b8U, 0x3d3e5a80bd932c07U, 0x3d4d8fbc3d39e1d4U,
  0xbdd729e33d5dab10U, 0x3df067d23dbc9628U, 0x3d59d900bd2c6bd0U, 0xbddf65e83dcff4dcU,
  0x3bca31e03e0dc27dU, 0xbdf31788be09acd7U, 0x3e0b56093deb4a5eU, 0x3def517e3d494100U,
  0xbd5aaef83de8cc12U, 0x3cb74bb03d710a48U, 0x3d365a10bd968ee5U, 0xbe02a55d3e06d665U,
  0x3dcf84463dcee932U, 0xbd8624df3d680fe8U, 0x3dc026f23d0fc404U, 0x3de1bcacbcb80028U,
  0x3df9378e3d816ddcU, 0xbd7df7c23d35f768U, 0x3da030463c490da0U, 0x3df9397ebdf077a5U,
  0x3e055fc7bd3da2f4U, 0xbd4019d43d435da0U, 0x3d9e189cbc739b28U, 0x3c9a65c8be0498ccU,
  0xbcd75e0c3e08390dU, 0x3dc04ae63e01715dU, 0xbd9d117fbda8ca0cU, 0xbda8b7c83e05de25U,
  0x3b4858003a8d1980U, 0xbc1ff5603d8311f2U, 0xbbb404a03df217ceU, 0xbde8bb443d5740d0U,
  0x3d9c59d63dc35f86U, 0x3cad3b883e0d1095U, 0x3d19d4fc3d8ae68aU, 0xbe0d1890bdc83bd4U,
  0xbdc5fb7cbde52dd8U, 0xbb6e8dc0bcdc244cU, 0x3d50b054bd01afeeU, 0x3df62ce63ae55f00U,
  0x3df44f223dae7292U, 0x3b398400bd9fc8f8U, 0x3ba571e03d48ae2cU, 0xbd962e1abe065f00U,
  0x3d995e383df052aaU, 0xbc1473903d088374U, 0x3c851940bdb47f5aU, 0x3e001fc93dc15358U,
  0x3d850cc8bd3f1194U, 0xbd9baef33df900caU, 0x3db44400bd5d7bfcU, 0x3c0b16603d90ad58U,
  0x3e0b24233d435004U, 0xbdd047863dd71346U, 0x3dafff9a3d038cd0U, 0xbdf675b93d060270U,
  0x3dbb85743c1fef10U, 0x3d5c55f03cae2338U, 0xbddd06f43cacce88U, 0xbdeec0ddbc7fb370U,
  0x3bb27c803bf380c0U, 0x3dbf462e3d3d1fdcU, 0xbc92c96cbdd6e6ffU, 0x3e0e8399bdc77eebU,
  0xbde7d76a3e01d987U, 0xbdf429373da55334U, 0xbd918bb83da3078cU, 0x3da397a03e051b07U,
  0xbde045eb3d9a5f1aU, 0x3db75caabe069163U, 0xbd46f1d83cd2abf8U, 0x3df39bc6bdfd2232U,
  0x3cb990083dce1596U, 0x3e02c4ab3cd842c0U, 0xbd2d17e8bcea2e48U, 0xbe082078bda49ce8U,
  0xbd8fedd5bd8e6fd2U, 0xbd86e0b3bcf466a4U, 0x3cc9fbd0bc7095c8U, 0x3d2fb868bd23c87eU,
  0xbcaca5583db5b154U, 0xbdd02d1c3dba1794U, 0x3cb71960bc38f000U, 0x3def5f363d858c5aU,
  0xbc2536d03dfd98faU, 0x3dac4154be092cd1U, 0xbd6864483e0d6efdU, 0x3d84f4d4bdc76c02U,
  0x3de27b22bcd44160U, 0x3dc31ea4bd6c2daeU, 0x3e040335bc2870b0U, 0xbd6fc0063d4696f4U,
  0xbd0288283d6f884aU, 0xbe416a2f3d9b9bf1U, 0xbdac181a3eacb9ceU, 0xbee3f7423ced5153U,
  0xbee972ffbe138317U, 0x3e232ae0be8bec59U, 0xbe27cb52bd62f050U, 0x3e5cdd5f3d867b32U,
  0x3e5d54d9be62cc67U, 0xbdc005603e61719cU, 0xbe547dfcbf1a5938U, 0xbe3f0ee8bd75f220U,
  0x3e5c5cd8be81539dU, 0x3dbdfa6fbd6adec9U, 0xbdb4ac3fbe1bdf5aU, 0x3e1e1f363e910d59U,
  0xbe9ab4003cb4bdb7U, 0xbebf676f3e1174f8U, 0xbe23a0babec0ed9aU, 0x3ddc5a13bd516195U,
  0xbd869ff53e47881bU, 0x3e980c5c3e398c54U, 0x3e3af3ba3de31151U, 0xbe7851e5be3909c2U,
  0xbebfda3abeaf240aU, 0xbf0becc53dbd23a8U, 0x3e64bf863cf78161U, 0x3d5adc2abe49c2afU,
  0x3dc49c403ed2e2b8U, 0xbe4bf564bd8922e0U, 0xbe9183823dac7ff7U, 0x3e5f7e58bea5c6a9U,
  0xbd163edfbed94a33U, 0x3c05d4cd3ab0e13eU, 0x3ee3922f3e095747U, 0x3e5ce3de3e9ca3ffU,
  0xbe85ecb03befb160U, 0xbe1f5d74be8000daU, 0xbeb2048e3f105538U, 0x3e7a6869bd9b6e3eU,
  0x3e923a9dbcf46a71U, 0xbde1f9683e715c40U, 0x3ddeab1abe15c4adU, 0xbea807f8be16d347U,
  0x3e6e9dd6bbc8a75bU, 0x3cb025d93e2238c5U, 0xbde645433e9d11f2U, 0x3e85f5613e42e4deU,
  0xbdf1b7913e170261U, 0xbe831b833d1dce6cU, 0x3d94dc23be2c8dccU, 0x3e21311e3e99fbebU,
  0x3dddbb6abd1bc1f1U, 0x3e667fc03d1e7983U, 0xbdb4bb3c3eb248efU, 0xbe1b587cbe38accaU,
  0xbe5b68e6bbee2e6aU, 0xbd10dcb73dca2afcU, 0x3db89ed4be0d4f09U, 0xbcfd4d6a3e3eaaedU,
  0x3e2673b6bb95fc69U, 0xbcd5abb7be1a0452U, 0xbcfc769fbde3c39aU, 0xbd122141be5587f5U,
  0xbeaa967a3e3a8ab1U, 0xbd58901abded2babU, 0x3c91f72fbe072a21U, 0xbd8f74013e37f1d5U,
  0xbe1c70083c8ec504U, 0xbd778d083e0d2326U, 0x3d14eab5bdd96726U, 0x3d702946bdac5a80U,
  0xbcf52cdfbe239c1cU, 0x3dee7b23bdb4b402U, 0x3dd0a8c0bc2aae08U, 0x3e5c85bd3cec0e07U,
  0xbe8eb56b3cb5468bU, 0xbca925e1bd56561dU, 0x3d578b1b3d8fe97cU, 0x3de302c43d533655U,
  0x3d96623e3e561d86U, 0x3ca8cffebca92d3aU, 0xbe59ad7b3d612d9aU, 0x3e11dee3bdde812bU,
  0xbd3a97fe3db35702U, 0xbdaea896bd41bcffU, 0x3d9478123b6a759aU, 0x3e26928bbc02dcd9U,
  0x3e07f5653d56c0b1U, 0x3d9d8f8cbe5d23d7U, 0x3e3a6e5abdecfe38U, 0x3d0789483db6b6e5U,
  0xbe2d4fca3cf6124fU, 0xbe1997503db05c7bU, 0xbe22f51bbddfbf6dU, 0xbed6fdc9bda6638dU,
  0xbe73b0563d3a4bc6U, 0xbcc9600ebe1001e6U, 0xbda216d4bc98eafbU, 0x3ce03f31bdac0ea1U,
  0x3cf921b1be01cb38U, 0x3d5b8310bd8aeb28U, 0xbe94610dbd9f402bU, 0xbd8d230ebdc1cd38U,
  0x3d1e078e3e04f9d7U, 0x3ebae8d5be354d22U, 0xbc5cd1b83e66a4e0U, 0x3dd27f42bc829e0fU,
  0xbd58011dbe731691U, 0xbee0d5e43e425899U, 0x3da2224b3cedba18U, 0xbe3ae8763c81f8d2U,
  0x3d980c583eec0566U, 0x3eb02e6abdc726d8U, 0xbcd1ee2b3ebb98f3U, 0xbdd3191dbdddc2b4U,
  0x3e1dacefbf01dcb0U, 0xbd74d38d3c330d39U, 0x3da7188d3cca1e7cU, 0x3e065f393d9473cdU,
  0x3ebff1d03efc847bU, 0x3dd37c8abe299c5eU, 0xbec390e9bdf9612aU, 0x3d2d4eca3cdb1e62U,
  0xbd7f3e46bd71f1f6U, 0xbd86a3393dedf54dU, 0x3e2fabf63d087081U, 0x3e8eea713e8bf0d0U,
  0x3d2942cf3ec492d7U, 0x3e98d7863c56cd9eU, 0x3cebf6683d61ccecU, 0xbdbf3be83e4710d9U,
  0x3ca58e61be544f73U, 0xbcba3dce3dc848c0U, 0x3d3843343e110001U, 0x3e699b09bdadf847U,
  0x3da380943ed361a7U, 0x3ea697513e657463U, 0xbdb941d53db059d6U, 0xbe0438343e0683a8U,
  0xbc83a411be85aef1U, 0xbe80a4183e3aba86U, 0xbddc286fbe162f48U, 0x3df2807bbdc54ffbU,
  0x3db690643e902f35U, 0x3e9a41fd3d826d33U, 0xbe07b5ebbd946905U, 0x3e1cf5a13dc2071dU,
  0xbe444443bd35b07eU, 0xbd6633d33e73664eU, 0x3e2787ef3c817bd5U, 0x3da82381bcd21714U,
  0x3ca424733d607a7cU, 0xbd8e5e3abddafda4U, 0xbe65f9583de9ff1aU, 0x3d04a5e0be9ad0abU,
  0x3d27bb843ceef7a7U, 0x3d7cd39d3d9e628eU, 0x3da06a5d3d9e8c73U, 0x3d0c7cff3cdc6353U,
  0x3c0125d33e0672a7U, 0x3d6665d9be0f1d22U, 0x3ccf00c33d743b30U, 0xbd3574abbdbb21ffU,
  0x3e6713813d9b5c57U, 0x3d25fa193dcc3a46U, 0x3d59c666be24afebU, 0xbd1fe0803dd7ca18U,
  0x3e5dc2263eb1a922U, 0xbdf67245bd1e5b85U, 0xbe25b565bd99f86bU, 0x3d8500a93db82ba0U,
  0xbd59f30e3cb486fcU, 0xbe3c9470be245649U, 0x3e193b71be98ab40U, 0xbd46efe03e659e93U,
  0x3de24c6abe1dfa09U, 0xbdbbcde63db4551bU, 0xbe3722abbd8e5cdeU, 0xbc4889073dc6800eU,
  0x3e8f60f2bdee5b1cU, 0xbeadf52e3e626519U, 0xbdaf4e55bd4fd828U, 0x3e11489cbd6e070fU,
  0xbd2d156e3d22fdffU, 0x3cc98c393e7269fdU, 0x3c34871d3da5ea6bU, 0xbe077caebd288701U,
  0x3dd4ef90be6c83a7U, 0x3d87f85cbbc7d5a5U, 0xbc965a133c8f5f4aU, 0x3d9c3ac23df6a1d4U,
  0xbe2c7b903d336fe8U, 0xbdf716f1bcb90155U, 0x3c970c903e32a232U, 0x3abf5a75bd258badU,
  0xbd8bb12ebc5f532aU, 0x3cc3033cbc8f88d0U, 0xbde0c3b23d8b8408U, 0x3de32cf53c40b1bcU,
  0x3cfd4d793e164363U, 0xbd2233d1bd14daa7U, 0xbde8370d3e1053f0U, 0xbdf8dc883db2bab5U,
  0x3d5bf8c93d37d553U, 0x3d942896bdbdb5f2U, 0x3d8db3b93e52f9d6U, 0xbe5c4c653defa7a5U,
  0xbde2cbd33ccaf88bU, 0xbdd2d4383de39c85U, 0x3d5c753ebe295e26U, 0x3ba3d54d3d6336cfU,
  0x3dcbc8033ea80acdU, 0xbd6cea17bee905c1U, 0xbdcb4a523d999c40U, 0x3df8a344bbb3cdb9U,
  0xbe5a35abbe22319bU, 0xbec430b43e144477U, 0x3d70fd213e20d42eU, 0xbeef6d70be31385fU,
  0x3e968482be0ad1c6U, 0x3cdabb213d074775U, 0xbdb73e2d3eb9ce49U, 0x3ca90422be164f64U,
  0x3cae300bbeefaf31U, 0xbedf57c8beb4be2fU, 0x3dcc9d6ebe1a5d70U, 0xbdf25dd5ba2414f3U,
  0x3e6e9ed7be33eeb3U, 0xbe85b526bd8f485aU, 0xbe93026cbc2f3734U, 0xbefd38083d06a423U,
  0xbdee5ad1bec97163U, 0xbdd9a292be795032U, 0xbe22562a3b8f445dU, 0x3dd971823dd87b4eU,
  0xbea5281cbd6c101dU, 0xbe88455f3e8fec82U, 0xbd784b32bebf0444U, 0xbedf3ab0be7c0fadU,
  0x3d8782cc3e691fafU, 0xbc164c8bbe7e0406U, 0xbe840537bcbba265U, 0x3eafdaaebddb7a8cU,
  0xbdcdef6ebe49a38aU, 0xbca70f9e3e4946daU, 0x3f17a6adbed7def9U, 0xbe0a575bbdd16ea9U,
  0xbd768b90bcde1755U, 0xbd124f7ebe350cefU, 0xbe2eb9acbd467323U, 0x3d3653e13db9e297U,
  0xbe04e667bd847984U, 0xbdd38cf13e60e13dU, 0x3e359280be430b98U, 0xbe05a4d1bd44dfbdU,
  0x3ddd255fbe685212U, 0x3e37a126bcf1bdddU, 0xbbf2ef01be0393edU, 0x3d9fade1bd2ed9e6U,
  0xbe22a9c4bcfc4f1dU, 0x3d8eafcb3d7aac1eU, 0xbcb75da0bd15e81bU, 0x3b442d1e3e9b7b37U,
  0xbdd26531bc28a85aU, 0xbe1adb7e3e211284U, 0x3e13cae83e1e39b4U, 0x3e041692be21c9a8U,
  0xbb859da13dc20f75U, 0xbd1881443dd74449U, 0xbd69171e3bc326e6U, 0x3bb9f825be2795afU,
  0x3e7a8473be6c914dU, 0xbd89622c3e014b81U, 0x3d224b25bd2e94a3U, 0x3db7f448bda3bc3dU,
  0x3d05cfe5bdb17786U, 0xbbb6fcf4be015cd7U, 0xbec9665b3dbe3609U, 0xbd8509dc3df8afc1U,
  0x3cd36de1be12c6a6U, 0x3e0fafbcbd123082U, 0xbe1dc8453e6bbb5fU, 0x3d96c8313db0194fU,
  0xbe6e612fbe01b1d6U, 0x3da4acf2bc8bdea6U, 0x3cdacdeebc905f48U, 0x3d821a60be251d7bU,
  0x3d02714d3daf8ce8U, 0x3e070807bd07623bU, 0xbd266d013dd6a862U, 0x3de12ef4bd6d2625U,
  0xbe0dd7753e7e3749U, 0xbd040df23e1dbbb3U, 0xbc9c26b73d539d91U, 0xbe325a39bda487bdU,
  0x3e146a3a3d377e35U, 0xbda6804dbca47c96U, 0x3cb18c243b26a771U, 0xbdc5757c3deca124U,
  0x3d7437493e1cf210U, 0xbdf674a4bd40dedfU, 0x3de5ffbabd93ed64U, 0x3dbb21dd3d9999ccU,
  0xbe5a7943be527d45U, 0x3bb17f9c3e3f2ebaU, 0x3dcf890fbd671980U, 0xbdf7e501bd3613d8U,
  0x3d68bb6cbdc1fb30U, 0xbd3801453e0fe799U, 0xbca6cd3abdc68f5eU, 0xbd14484fbe3a9e8eU,
  0x3e712bbebda4cb53U, 0x3e0cec003dcd3b7aU, 0xbdb68a63bdf0c588U, 0xbd785475bdbca49fU,
  0xbdfffa303d6294eaU, 0xbe67a1f33abf1bceU, 0x3d9c4fe53d2d67aaU, 0x3e6c406b3e8ae4e6U,
  0xbe1975ae3e074c13U, 0x3da8203f3c8e9134U, 0xbc88980dbda8fa27U, 0xbcdf7932bc57ee4fU,
  0x3c394f38bd045f56U, 0x3d3d1e0f3d811549U, 0xbdfb5f9d3e002f69U, 0x3e90e457be080b85U,
  0xbb04ce413dca40acU, 0x3d95fcc03e4d439aU, 0xbe445154bdc546aeU, 0x3e159f4e3cddc0f5U,
