/**
  ******************************************************************************
  * @file    network_data_params.c
  * @author  AST Embedded Analytics Research Platform
  * @date    2026-01-02T22:58:05+0300
  * @brief   AI Tool Automatic Code Generator for Embedded NN computing
  ******************************************************************************
  * Copyright (c) 2026 STMicroelectronics.
  * All rights reserved.
  *
  * This software is licensed under terms that can be found in the LICENSE file
  * in the root directory of this software component.
  * If no LICENSE file comes with this software, it is provided AS-IS.
  ******************************************************************************
  */

#include "network_data_params.h"


/**  Activations Section  ****************************************************/
ai_handle g_network_activations_table[1 + 2] = {
  AI_HANDLE_PTR(AI_MAGIC_MARKER),
  AI_HANDLE_PTR(NULL),
  AI_HANDLE_PTR(AI_MAGIC_MARKER),
};




/**  Weights Section  ********************************************************/
AI_ALIGNED(32)
const ai_u64 s_network_weights_array_u64[5955] = {
  0xbea55c3a3e47dd6cU, 0x3e521839bdbc1891U, 0x3e81426abf5bf3e5U, 0xbe2835a4bea0f75aU,
  0xbf2f7cfc3dce2690U, 0x3e17c403bda1127dU, 0xbef961b5bed4e64fU, 0x3ea61c6dbe74cb71U,
  0x3d01dcadbf2912d7U, 0x3ef4ec02be8d9d0dU, 0xbddbde6ebe83cb19U, 0xbf53ec033e11a6ccU,
  0xbe4df1383e8dac5aU, 0xbf512bc6bc9dd31dU, 0x3ef20fcf3d9fc643U, 0x3ed94c11bef50e2bU,
  0xbe14f86d3e97f707U, 0xbcf48b293f62eed3U, 0x3e2a08cabd85e6d3U, 0xbf0892eabf436c1eU,
  0xbe95b2813f1d4a57U, 0x3ebea6edbe8a5e95U, 0xbe8abcbebd3d4d00U, 0x3ee13c4d3d7c4e34U,
  0x3e101f353f746458U, 0x3d82ffeb3db4b827U, 0xbf081626bf09c9e9U, 0xbfa8d9c83f185583U,
  0x3ea5d29bbda2c415U, 0x3e87f0f63c371cd6U, 0xbf22f6f73eb39ccdU, 0x3dc2dccf3e1dbf42U,
  0xbcfc0aa63ba58043U, 0x3ea880b1bf0dc50bU, 0x3fcde38b3f04d1c6U, 0xbe483a9e3ccfdf99U,
  0xbf45c383bdb2fdbeU, 0x3f26f021bdfbc55cU, 0x3e3551b03eaecce0U, 0x3f15f547bdd1ffc5U,
  0x3e0c317bbf30a6a3U, 0xbe76b4d33e40f101U, 0xbcd055ce3f06fde3U, 0x3ea62808bdf06ac6U,
  0xbead43273db418abU, 0xbcb022e9bc17bbe7U, 0x3e086de93dbeab8eU, 0x3f2de7be3d599968U,
  0x3f0f9d59be875846U, 0xbef2e01cbe8b5de0U, 0x3ed9c1f13ea76d63U, 0x3df209f9bf122959U,
  0x3dfbbebbbc41d50bU, 0xbf668794bca36f00U, 0x3e8037b93e45c472U, 0x3eba5ab33d7456a7U,
  0x3cdd4b38bd35d012U, 0xbe6bcac93e86a8cdU, 0xbfbdeb3a3f1651fdU, 0x3c6f79493f13985fU,
  0xbf0ceaf3bd94e714U, 0xbeb99af4beebe7faU, 0xbeb28c443f1b9cd8U, 0xbf0a1da2bd709305U,
  0x3e734403bdb8233dU, 0xbe0ad1d23e0798f3U, 0xbe1af8a4bedfccf5U, 0xbd0416d33da8babfU,
  0x3dd6ef6f3ecab058U, 0x3e8442c6be1fd9b4U, 0x3e372a2fbc8a2821U, 0xbf244952bce307aaU,
  0xbf8b93093ee315fdU, 0x3dd55e74be65495aU, 0xbf181e943d912e9aU, 0x3d60822dbf1e1cdfU,
  0xbe090f3d3ea74075U, 0x3f02ec47bd216321U, 0xbf6c27773e7ab4c9U, 0xbc837f5e3e095bd3U,
  0xbd910514be7c1355U, 0x3f1579213e7384e6U, 0x3e955197bf5153e3U, 0xbe94d77cbef9f54fU,
  0xbe7d962e3df68f67U, 0xbeadf33bbe17b177U, 0x3f2f43fbbeabac13U, 0xbe48511d3f9e5793U,
  0xbdd3d12e3e66394cU, 0x3efa6b1d3e16c9efU, 0xbcb975ec3e248fc5U, 0x3e6ac75d3ccb1d1dU,
  0xbe93f23dbf62d939U, 0x3e1ae001bdc9095cU, 0xbd8519e3be916a50U, 0x3e94334b3e6db420U,
  0xbebfb642bd539631U, 0xbf9cb3f8be51e64eU, 0x3e1f4e13bd411dc5U, 0xbea33170be2b3765U,
  0xbe8a57cc3f48b565U, 0x3b42cb0c3f92373eU, 0xbeedb0c5bcd77fb7U, 0x3ea82658bec4e2fdU,
  0xbe6fe52bbf5e8720U, 0xbec2f405be3d3590U, 0xbef73fc6bd5df972U, 0x3f423051bd4a8497U,
  0xbf19ea0c3e74ebcbU, 0x3f4db6ad3f3554e7U, 0x3eda9dd1be9e67f5U, 0xbd29fbce3db7c6f8U,
  0x3cbeb91bbe3fb8a5U, 0xbdbce8733ed59695U, 0x3e9e9b6fbee35d79U, 0xbde0c7053f03271aU,
  0xbee11986bd936439U, 0xbe7114c53e0a8298U, 0xbf53f0d53de8c9d9U, 0xbf61405b3e98ee2eU,
  0xbe10e76fbda3c933U, 0x3f08a57abe1062e4U, 0x3e37d478be30873dU, 0xbe4f0560bd25b28eU,
  0x3f263c553eef3c4eU, 0x3f7f0981beeb28c8U, 0xbbd9003bbe81b3c4U, 0x3f333619bef41ac0U,
  0xbf5cdeff3f0e5b16U, 0xbed5a8c8bea8d906U, 0x3eda49e43f0f343bU, 0xbeba5678bee95c3aU,
  0x3d8fef553f191fb1U, 0xbf0ee622bd9bb018U, 0x3e69a6d6bd98e331U, 0x3e8970623d19b221U,
  0xbea8a13cbe71547eU, 0x3ee29b553f0c5c32U, 0x3ea4a70e3e50cb14U, 0x3e9f0478becd05ffU,
  0xbbd901f33da80a3aU, 0xbf0195d33ebdd596U, 0x3eeb1ef9be96faffU, 0xbe2e1a52bf1a80f0U,
  0xbea26afabe5dde9dU, 0x3e8570af3eb1e2c4U, 0x3ea950c0bf18c41bU, 0xbec3e440bd6f0967U,
  0xbee3bfafbda3c7ceU, 0xbf70e912bf1ec211U, 0x3c436d20bf231f17U, 0x3e17928fbf156117U,
  0x3e2c6d2e3c8b63b4U, 0x3cd3769cbf533a6bU, 0x3f063cf9be91d2a4U, 0xbeb5cc9ebd7f329dU,
  0x3e279156becd8a10U, 0xbd8599acbe2701d0U, 0x3c0e3e993e8c9612U, 0xbe048bb83dc3796bU,
  0x3bebd58b3d40cefdU, 0x3e630f20be9bcc65U, 0xbec2d0893edd4c53U, 0x3e416fed3dee66e9U,
  0x3ea1fff83eebd927U, 0x3deb3396be16565eU, 0xbe6e71943ea5d4e4U, 0x3ec2099a3ea229d3U,
  0x3e5deaafbd892b94U, 0xbebad3893ea02b88U, 0x3e5eb0fe3f54d0d6U, 0x3dfebeb03fb01cc7U,
  0xbdb9e2c2beb72c49U, 0xbe681553bf08e53cU, 0x3f469ccc3e3568beU, 0xbeb2b3673e9e6b44U,
  0xbc98d1efbf2834b7U, 0x3e05c4ddbf37dd8dU, 0x3d261455bf3ebb5bU, 0xbf1a424fbe9d2be4U,
  0x3e42e27e3ebc278dU, 0x3f522f2b3e0d6304U, 0xbe25eb63bc504052U, 0xbe9fae2dbe4a36b9U,
  0xbeac14613eb9c829U, 0xbdde3c1fbe9d9c3aU, 0x3eab59153f0cf98fU, 0xbc94ac6cbec87dcdU,
  0x3ec924dbbf1a743fU, 0xbb811eeebcfadf3fU, 0x3e654478beaf2cecU, 0x3e5843d0be52d1e3U,
  0x3e9b5a21be3ca9d1U, 0x3e9ce0423dc0501fU, 0xbd6a0df83f1eaf6fU, 0xbf32e02bbea317ebU,
  0x3d8518183e2d29a3U, 0xbeef4ec9be242dc9U, 0xbd8b6bd6bf1b09cdU, 0x3b8c36e33fd6c27bU,
  0x3d8ea14f3df691ddU, 0xbfe9611d3e2fa6eaU, 0x3f0800b63e682d61U, 0x3f363f4e3dcc429cU,
  0x3e3b3357bf23816bU, 0xbc2fc409bd352cc8U, 0x3ef6ca82bf08df4cU, 0xbdb8aa0c3f488cb1U,
  0x3e7e0e89be8a850aU, 0xbe37dd883ef5ca2bU, 0x3e8288913dd1674fU, 0xbdc4aa81bf0f4760U,
  0xbf30f2cfbd3008bbU, 0xbe4b70c1be976de0U, 0x3ccfe50e3e554f88U, 0x3db0ec3abf42761bU,
  0x3ef0df633f096065U, 0x3f5ef316bf298ab0U, 0x3e9d0084be626fc1U, 0x3ea83b123e128781U,
  0xbf236ef93ef32486U, 0x3ede18c53f518550U, 0x3d7ad585be20e774U, 0x3f1583af3dbbda7bU,
  0xbe8128043e1d9523U, 0xbf02d834bedd977cU, 0x3cf0b0b5bd9bfb8fU, 0x3ee543753f2beaebU,
  0xbeb7902fbe873b5dU, 0xbce26303bda56ad9U, 0xbeaeea8f3d0c4c7dU, 0x3e060877be7c6e2dU,
  0xbed75eda3e51a2dcU, 0x3f0a9d1dbe5ef222U, 0xbce5adb8be2abe5cU, 0x3d67d1ab3ed08931U,
  0x3f24c169bc6d33aaU, 0x3fd265bfbee4c59dU, 0xbd471a953b35ba33U, 0x3c2ab2d13eabca2aU,
  0xbf8709143ec9fd06U, 0x3ecd7d75bcd39c67U, 0xbe4a7a23bdeca1c7U, 0xbf9ac4303e420b8cU,
  0x3f1019b93e577f15U, 0x3db15788be21392bU, 0x3d603032be5d6695U, 0xbe2ad127bf6e635aU,
  0x3e5fc1b5bee6cb98U, 0xbdd04cafbf1dbef8U, 0xbdc5e14dbe8656ddU, 0x3da0770e3f1f030bU,
  0xbe7079243e39cc33U, 0x3f029b72bf29c4e0U, 0xbe78c571be1c3f4aU, 0xbba7955fbd263d07U,
  0x3e5228b23eed890fU, 0xbfa1a8b5bf0920d8U, 0x3e567d4e3f1e0a17U, 0xbdad6b8a3f9f02f9U,
  0xbe2c1f693ec764faU, 0x3e5081e43e13db17U, 0xbe7b491abe8f3c6aU, 0x3f215fb8bf72adb8U,
  0x3de759613e08ae3cU, 0xbed6a10f3b98d79fU, 0x3e943d4cbdba2f31U, 0xbf0a726ebf0a176aU,
  0xbee04d323e7c4684U, 0xbdbb110fbe617027U, 0x3d026d0c3e84f7ddU, 0x3f21012bbc75ddb4U,
  0x3f3a8de6be4a44d8U, 0x3f10308abe918764U, 0x3c3771173e693f68U, 0x3e5d6d58bf8fb169U,
  0x3cdd81f4bf026631U, 0x3c26c8103d307ca3U, 0xbf84f472be6537e0U, 0xbfac9f5f3d415868U,
  0xbca23c00be5cccdbU, 0xbe9500703e50528bU, 0x3f03b227bedacf94U, 0xbea0d72d3e846e86U,
  0xbf104a59bed63cd9U, 0xbd8639d43f0e911dU, 0x3d6d0a923c8cc868U, 0xbec2214f3d481e4aU,
  0x3ea08cacbf124d52U, 0x3ec420cebe2fad31U, 0xbdef726bbef6b6ecU, 0x3eeaeb2a3eab4c76U,
  0xbd8df89cbf586bd2U, 0xbba0240d3ef73ad7U, 0x3e065ec4be002796U, 0xbec616393f1fbd42U,
  0x3de59c973e9afa6cU, 0xbef24c41bd830347U, 0xbf0aadae3ee063b2U, 0x3ebac5d43d92f127U,
  0xbea1859ebf143b0bU, 0x3de6c630be69c4dcU, 0x3e9f8f9b3e34b531U, 0xbeb1ff7fbde1ec32U,
  0x3c78b6e3be028bfaU, 0xbc1178c8bc996721U, 0x3ebf3e01bd52b25dU, 0xc00fef23bb77ea59U,
  0xbe9e5aca3d68a3ddU, 0x3f036655bccb8c7fU, 0xbebad8ecbe497995U, 0xbc691ea740118794U,
  0x3dd0793b3e13cc3dU, 0x3e87ffbdbf78146dU, 0x3e57c82f3e9d340dU, 0x3e614df7bdd2f865U,
  0xbf181457bebc1a8dU, 0x3f1f8cfdbf2997abU, 0x3e78d8153f1f65f6U, 0x3e03c2f4be604c1dU,
  0x3eb928f9bea54817U, 0xbe5acc453e60517bU, 0xbde9f94abd830493U, 0x3dfadb023e187d20U,
  0xbee0aaeebf81ef35U, 0xbb1148563dd1ae6bU, 0xbc31527cbd6b5de7U, 0x3e6ce78cbf6890a3U,
  0x3d876a6d3ece748fU, 0x3f1f49a0be3da43eU, 0x3e340ca1bf602dfdU, 0xbd01699f3ed90056U,
  0x3cceccb53f1f2f1eU, 0xbdfdb4dcbd902203U, 0xbea4e01dbeb423e8U, 0x3e78e50fbe718297U,
  0xbf01c117bdd012a3U, 0xbe2945333de7e121U, 0x3f441997bedbe62fU, 0xbcb19f543eeb1039U,
  0x3e3ba5533e1cbec9U, 0xbef4fbcfbe8afb4bU, 0xbf5327f73f1b48b1U, 0x3dfa79a43e4cf1aaU,
  0xbec66ccdbdac1ddaU, 0xbe0403713f2b6063U, 0xbd53255f3eaee40fU, 0xbefd2dcf3ebbce63U,
  0xbf4a33923d6774d1U, 0xbf6f667b3d86cc63U, 0xbe578b373e11ccbfU, 0xbe0d1082bde636d4U,
  0xbc7ca7f13e84a977U, 0x3e92b7a3bd801e56U, 0xbd7fddaf3e85512eU, 0x3e550515beb57799U,
  0x3dd452a13e09dedcU, 0xbde5ebaabcc42fc8U, 0xbed2ec73be8d2492U, 0x3dedeb73bdbbc3aeU,
  0xbe9a35a7beb12035U, 0xbe14a3b8bd9185d1U, 0x3e5d6954be2b868eU, 0x3e9d9f13bec505c2U,
  0xbee9e7f7bd5a0f3aU, 0xbd0914a6be4a73eeU, 0xbd5798123e18b70aU, 0x3e36bd93be2d9ecdU,
  0x3c41d2e3bda1daabU, 0x3d22a940bdefacdcU, 0xbe0359743e52ad97U, 0xbe8d9913bf05ccb4U,
  0x3e1ca5813d99f8d8U, 0xbe14f0743d19c4deU, 0xbe8145233dc88a69U, 0xbcb77eb7bdc57167U,
  0x3d7a6468bd9fa6f2U, 0xbe3ee6783d39de16U, 0x3d1a0541bdd103daU, 0xbef8a4fd3e84fc89U,
  0xbe9deb8d3c942dfaU, 0xbe963c73beb6a4e0U, 0x3e76bb31bea8ec81U, 0x3d93f05b3c967197U,
  0x3dd84fdd3d9dc7f0U, 0xbd64ef833dfda345U, 0x3e1c61103db2341aU, 0xbef31071bf078990U,
  0x3e0cef08bf014941U, 0x3d9b84113e3a0cddU, 0xbf0262e33c82c440U, 0xbc46c4a3bd9d1ff6U,
  0xbe9835153e2921ecU, 0x3e8d01953e5b4ab0U, 0xbe9c52b7be20c7a3U, 0x3e2c1b3dbe2346c1U,
  0xbecc2f1f3b113594U, 0xbe6a08f1be7b9761U, 0x3e3d144cbe688ec7U, 0x3e86121c3e90a86fU,
  0x3d82a343be839a79U, 0xbebd261abd98cbd9U, 0x3dfbaf3b3e51c8efU, 0x3d962034bdf953bfU,
  0xbdb5fb073e900cfaU, 0xbc0f47703f8c4c70U, 0x3e1093373e81b656U, 0xbebc313d3982edfdU,
  0x3dbc795a3e822aa3U, 0x3e52392cbdded025U, 0xbe217e6bbe58659eU, 0xbf135195bec2cbb7U,
  0x3e8c5371bd01f22fU, 0xbe8c98443c23025aU, 0xbd257c10bc932b33U, 0x3e69498cbe36acb3U,
  0xbe846b843dc6cedeU, 0x3e1b020bbea6167bU, 0xbec548adbc8e2a3cU, 0x3e3da09fbcb510a7U,
  0x3e2f04c83dd34d76U, 0x3dcbe7333e2c20d9U, 0x3ed6bcecbdc614dcU, 0xbe76320f3ddd291dU,
  0x3d225dd43e6a17f8U, 0xbe3e7b33bd8ee1ccU, 0x3daeb9ee3cd9dce5U, 0xbdcd3b68be524ae3U,
  0xbea3425dbe89cb1aU, 0xbda7852e3eb1102eU, 0xbd103c1dbd344286U, 0x3cb65fdc3ed12886U,
  0xbe191c8bbde8998eU, 0x3e8af278be1b90c8U, 0x3e3cd5a7bd34285fU, 0xbe0bb795becebd23U,
  0xbdeccdd63e8b62ebU, 0xbefe49eb3d5b8c33U, 0x3e255336befbaedcU, 0xbfc3f8d4bf0a4395U,
  0xbc41a45fbe270f03U, 0xbe1d1e68be9c3528U, 0x3e8a28c13e4d73bbU, 0x3e4022a73dfdea3eU,
  0xbf7841cf3e0f8000U, 0x3e4701b93e75d09dU, 0xbdac3c5dbe101769U, 0xbe7f622f3c27d801U,
  0xbe5fe555befa496fU, 0xbf05708b3f158555U, 0xbdf8722ebd9b442bU, 0x3ed84e2e3df908c0U,
  0xbedeb54d3ec79ce7U, 0xbe8eead63efe2f5dU, 0x3e20dd773ec0908aU, 0x3cf7f3e2be9dfc37U,
  0x3df656f73bf8550fU, 0x3e8698ff3ea11327U, 0xbe338b513ea64dfaU, 0x3d9e0e0fbf229cb7U,
  0xbe2b10a43db320a2U, 0xbdabfe303e2892c5U, 0xbe47a7cd3eaa339dU, 0x3e5af7b4bd816ab6U,
  0x3d8acba4be53020aU, 0x3e038790bef1f511U, 0xbd2396b43cc3f17cU, 0x3e2cfa1ebe8a02c4U,
  0x3e879bb83f2f078eU, 0x3e2c4886becac645U, 0x3d8b55db3dcb9bf6U, 0x3d98e15abf28cba7U,
  0x3e91cff63f199990U, 0xbdef20f3be82097fU, 0xbe16f1013eb57ac9U, 0x3f0501afbda11916U,
  0xbe0a28b0bf0ae6b7U, 0x3d93305fbcaf8d2aU, 0xbd7512d2be61d1fdU, 0xbe4306383e9fdf24U,
  0x3e5ddbe53e9e6f16U, 0x3e1a91d63e8ec7b6U, 0xbf99d9713d1e9fb7U, 0x3da5ce54bebc73edU,
  0xbe2c100a3eb53a58U, 0x3e23f62cbc9db60dU, 0x3f07f203bed5fc06U, 0xbd90a9adbb867521U,
  0x3df84abbbec1d53bU, 0x3c7537013ed39bc3U, 0x3d53c528be1206e1U, 0xbdbaee373e0ed798U,
  0x3e4bd6c83c7a46d6U, 0xbe01b4d2bdb87146U, 0xbf3d613e3e1107e7U, 0xbdfd49fa3f06515dU,
  0xbf58ae6abebe4d3eU, 0xbe72fa673eb6463cU, 0x3ea96b1b3ee8f266U, 0xbc842751be4296a6U,
  0x3e00b85fbd218f24U, 0x3b8ed005bdf2b607U, 0xbd927afcbdef9d40U, 0x3c4994fc3deb3a48U,
  0xbe2c22b5be2947c0U, 0x3dbd456cbda0c176U, 0xbdfd032fbe2e7f2dU, 0xbe26702ebde05eebU,
  0xbc71eaeebe229b28U, 0xbdb87616bd9a7338U, 0xbb3a3900bda1add8U, 0x3d9d3039bdcaad56U,
  0xbbe45ce2be1ab330U, 0xbda161bbbe1b659dU, 0xbd610c1ebe1b8ecbU, 0xbd18c68b39bc7a22U,
  0xbe265631be338397U, 0xbe3c84293bef630eU, 0x3c9983973bc4b93fU, 0xbdb563c4bd32316bU,
  0xbd86c8ccbcac52a7U, 0xbded90c4bd8c81deU, 0x3d917a44bdc34928U, 0xbcc869a0bd234a70U,
  0x3d6e35643d40c189U, 0xbda1ab4d3d4d0560U, 0xbdf8abe2bb6d74c0U, 0xbc55291fbd9787b2U,
  0xbdeb8eeebd811b5cU, 0xbcc433bebe1239fdU, 0x3de5d395bde25250U, 0x3d60493cbd2c4ccfU,
  0xbde89d803d50dc68U, 0x3e0070783d83dadfU, 0xbe0adb45be3e6858U, 0x3d615f79bd730f10U,
  0xbe0b2e863c58c232U, 0x3d10dd73bde6f926U, 0x3e036142bded4ca1U, 0x3da5957dbda56b10U,
  0xbe07a6bebe3ab46bU, 0x3d6afe743ca61c7dU, 0x3e0ac5763d29fbf9U, 0x3d8f191bbe0bb1edU,
  0xbdee74c4be2649bdU, 0xbd344f443dbfda24U, 0x3d5b73a03d75eeccU, 0x3dba076cbe23ead3U,
  0xbd4fade2bd5c79e8U, 0xbe2fe057bdcc6c34U, 0xbe8da295bea2e26aU, 0xbc54478b3e987723U,
  0xbe96b977bcb9b57aU, 0x3de09cf23dc9ad6bU, 0xbf2ebd103f106bdbU, 0x3b8500f9bef065ecU,
  0x3eeeb78e3e050dcaU, 0x3d6794a9bca0a53dU, 0x3d8f6e383de779f9U, 0x3e9fa30d3d6d8818U,
  0x3e9cb8393e9ddea0U, 0x3e1c7bab3ed31103U, 0x3e92a160bef42849U, 0x3e4b9dc33f7c4819U,
  0x3dc4b7ea3e931db7U, 0x3eb5e7df3e5104eaU, 0xbf23e88fbead8476U, 0xbdaadb41bd8fafd7U,
  0x3ee822fabe72d2daU, 0x3d42a7ce3d352a1eU, 0x3e64a4e83d1ee42eU, 0x3f028a0cbe8551abU,
  0x3e50a2af3e4cad64U, 0xbe9de432bd843e38U, 0xbec1b29dbf175f7fU, 0xbe9d51f1bd0295dbU,
  0x3d9e1e70ba4a524bU, 0xbe09fa953e3daeb3U, 0xbfb44361bf3b1912U, 0xbf007f9a3e9e7553U,
  0x3ea3be49bb2e7e7bU, 0x3f0a2b293e6cd122U, 0xbd16d8bebe8ce025U, 0xbe90b7cfbd833785U,
  0xbf4d0a583e041235U, 0xbe3424a8bcba62c4U, 0xbf5c4fffbe0a3211U, 0xbf18b2f1bf147de0U,
  0x3eca49f5bc99dad8U, 0xbe331703be64a461U, 0xbe6bf680be26b53aU, 0x3eac968c3e9c9bc4U,
  0xbdd32a083da3a438U, 0xbd2959263e5a21eeU, 0xbed9b702bff92fcfU, 0xbd68d79d3e52cea8U,
  0xbe86f507be9e709bU, 0xbd1d75ee3f58571dU, 0x3ea2c6b8bedf79a8U, 0x3dc676003ebe4e46U,
  0x3b99b2d53e85ffefU, 0xbe8dd1f13eef029cU, 0x3e5309d63f197b6dU, 0xbf2a03e53f325846U,
  0x3ef719cfbe151f0aU, 0x3e210c7c3fe3ede4U, 0x3edfc3da3d08b564U, 0x3e9ef387be2abb60U,
  0x3f58cc3f3e98f8ccU, 0x3ec5b67f3dac5c4eU, 0xbf60b2623e008ce6U, 0x3cd1af2c3ea02d7cU,
  0xbf6951553f801a38U, 0xbe8866cdbede15bdU, 0xbeb91aa53d48909eU, 0x3d8ffb82bff2f8f3U,
  0xbe898d113f34f76fU, 0x3eba1268beb3620cU, 0x3e83e8c2bf51ea17U, 0xbc1fec01bf697fd5U,
  0x3f75ba543dbf309bU, 0x3cbd3b29be791cb5U, 0x3e1c4ed4bf8e11a1U, 0x3cc425ac3d3abd91U,
  0x3f7eada63e19731aU, 0x3f35ca1a3f291481U, 0x3e7d9c75bf62d582U, 0xbc3c4c03bf19b423U,
  0x3eb4b60b3f1e4955U, 0xbe473abdbe5a6822U, 0xc003d8d2be7bd665U, 0x3e7c943fbe99de48U,
  0xbf5aa1e8bddccf88U, 0x3f26e0f9becec438U, 0x3e0580c13e1314e5U, 0x3de543c73dbc4b01U,
  0x3f221652be0fe71cU, 0x3f49556d3d69e02dU, 0x3f28f04f3e74d776U, 0xbb620d80bd4eca54U,
  0x3f7fdf223de7705dU, 0xbe0d6cc3be9c0b23U, 0x3fe0161fbdcd5213U, 0xbf03379a3e3bd9b2U,
  0x3f106cfa3f290ae6U, 0xbe101c1cbe80c77bU, 0xbde576e53e927098U, 0xbf529daa3e2704a7U,
  0xbeebaa563f1a8506U, 0xbf2e157ebea6b083U, 0xbee2d6c33f0392b2U, 0x3e2c37e23dd5881bU,
  0xbf3084853dc03868U, 0xbe7077dfbe38ce6bU, 0x3da2f75c3e729dd0U, 0x3e2a04033f766e7bU,
  0xbe03c0473d9c435eU, 0x3f0020383e445511U, 0xbe98ebd43bcdc532U, 0xbe2ed54dbdf40c62U,
  0x3e62cbfc3eae73d6U, 0xbdfa57ef3e450394U, 0xbe3c47eabe93d2bfU, 0xbe715d0bbbeb3035U,
  0x3f00b071bcd6a3bdU, 0x3f146656bf0e51a8U, 0xbe1b06c43e1db566U, 0x3eba2f243ef3de04U,
  0x3f4344643f3da9aeU, 0x3ac20686bedbf957U, 0x3e88fc1ebdd897e7U, 0x3eff72353f1a4a77U,
  0xbde2eb22bead8d9bU, 0x3d84c6f5be911dd8U, 0x3bb65e313e0e8bcdU, 0xbeab4ff6bb7ffe76U,
  0x3dbc07bfbe9b5c62U, 0x3b198bcdbefbdde5U, 0xbd86a42fbe5f54fdU, 0xbe54d8fe3ca74b72U,
  0x3e6a41c03e5dd8e8U, 0x3f0f8d363f681c0bU, 0x3d2e66143ec84548U, 0x3e88ce143e05e88fU,
  0x3ee751393e87af09U, 0x3d749648bde6d36cU, 0xbdcbe17b3eca9ad1U, 0xbe10f4673dc32d77U,
  0xbe94ecde3f0a5641U, 0x3e98ce8c3e965de8U, 0xbdea1d3abe9452a9U, 0xbb7b1d1fbe9bc2ebU,
  0x3da916343d586c67U, 0xbd73cb6d3dd72983U, 0x3eb2ff6d3d803ed0U, 0xbde55231be03353fU,
  0x3f3dd2ffbe3e4340U, 0x3e955b50bd738539U, 0xbe1b02abbfab5409U, 0xbe503b8c3e8b83f9U,
  0x3ea04c94be442cd2U, 0x3ddf497bbe3985deU, 0xbd953d633eb13c5cU, 0xbe8e9150bd14beb4U,
  0x3d00f88d3ece530eU, 0x3df406f6bf0cfe82U, 0x3dccafc23ddc9788U, 0x3ee84ea4be7a274dU,
  0xbf3515d0bda74759U, 0x3d9638adbe156965U, 0x3d42f4cfbbd983aaU, 0x3f10b00bbea05815U,
  0x3da63e6abc983214U, 0xbe20828d3d2b03d8U, 0x3c8892d03daf816aU, 0x3f28182bbeac61d6U,
  0xbe2e52b7be526622U, 0x3da0d63bbf06943dU, 0xbd7670563e8509d2U, 0x3eb8c15fbe06f82bU,
  0x3d1f7857bdd30fe5U, 0x3e0de0003df5f35fU, 0xbd469bb73dfb5b43U, 0xbb40b4dcbdd6fed3U,
  0xbdf6e5373e31056aU, 0xbe47d3fe3c672420U, 0xbc0bbb193c59af14U, 0xbd79ac7cbe115927U,
  0x3ccbaa083e29d17bU, 0x3d1fa6f93ed1c68eU, 0xbf1db8e63e8a49ebU, 0xbe43fa503e8b5f00U,
  0xbab40e943eaa243bU, 0xbda35136be560ce9U, 0x3e9c2a313d7e52d8U, 0xbec910cfbe19fc6fU,
  0x3dd09c0d3e1d691bU, 0x3d6b41f7be01464bU, 0x3dfbf34cbe05ada5U, 0xbeb024ad3e8e3791U,
  0xbed41b99bea7074cU, 0xbe91a2abbde22e91U, 0xbe8077203e01e4c3U, 0x3e25413d3d5bc9c1U,
  0xbf2f7ca0bdac7c91U, 0xbe7c2680bde16ce1U, 0xbef7eebabdc34cf7U, 0x3d976f7ebe0a440aU,
  0xbf01f0d9be9619e9U, 0x3e2f626a3e663479U, 0x3f3eaa17beaa8f0bU, 0x3f14ee3e3ea321b0U,
  0xbf0449e23e039134U, 0x3d7bc9c7bf021562U, 0xbf6d6c8f3ea89723U, 0xbfd36039be9244e0U,
  0xbecb010bbd2ef1a6U, 0x3f02df4abdf15eacU, 0x3fa964f93e9432afU, 0x3d8f84b5bda85576U,
  0x3e6c9293be4326e7U, 0xbf68a559bf548577U, 0x3d331f093e0f9022U, 0xbc392fcd3f8ecf8eU,
  0x3f32e4f93e44d0d8U, 0xbee25932be401b8bU, 0x3d7d1a5abf95bfbeU, 0xbd3c4b8fbf009ce3U,
  0xbf9968c93da01e6eU, 0x3f24359dbec005daU, 0xbd6bcb09bf69e11fU, 0xbeaefe913ee1b6ecU,
  0x3caa9c66be3dbb98U, 0x3e266876bf43ab97U, 0xbe316a62bfa8cfe4U, 0xbe4fefaf3e919e00U,
  0xbe92d9cf3ed5a946U, 0xbe977351bbbafa66U, 0x3d583a433d81c3ddU, 0x3ec907723f14fae6U,
  0x3e9a16143eee83f0U, 0x3f4538093f3fb8a7U, 0xbd2ae244bcd6ee87U, 0xbe8399e9bd9d6d8eU,
  0xbe52daf8be2096cfU, 0xbeb0a66d3eefd84fU, 0xbf28ec703e086143U, 0xbe117a92be9228f1U,
  0xbe354a8c3f26ad49U, 0x3dd72e15bbdc9960U, 0x3e98bf1fbf5c013bU, 0xbfadc2f63e867046U,
  0x3f8429cebf02fbe5U, 0x3de823cc3e285a89U, 0xc00cd025be1e3563U, 0xbef64154bef51c85U,
  0xbf0eb7863ea5751cU, 0x3e30cc7f3f89db8bU, 0x3d518e9dbf254c04U, 0x3f2171cebeae536dU,
  0xbea58589be778af6U, 0xbf915260bf26b307U, 0xbd722916bee335dbU, 0x3df0003d3e8de210U,
  0xbde65a1cbcce9bcfU, 0x3e1dbf703f842a1aU, 0x3e82197cbe9f7a73U, 0xbf3db2b93dd4388dU,
  0xbdb72cd3bda360bdU, 0x3db52dc73d562a5aU, 0x3e8993743e0388ebU, 0x3e8e0bba3f42a667U,
  0x3dabde47becdd61aU, 0x3ea003cbbe032c7fU, 0xbe9ed8fa3ea1af16U, 0x3f19e4153d7580a7U,
  0xbd674dd53e628510U, 0xbe7fcf6f3eb2f1deU, 0xbea10312bec8a051U, 0xbe8365653e26c424U,
  0xbe32090d3e8911deU, 0xbcd62fe3bed4c247U, 0xbdd13f563dddea36U, 0xbe07db3e3e181921U,
  0xbef400773ec8cd0bU, 0x3c9309babee08ab6U, 0x3ec6484a3d30f7acU, 0xbdb58733bdb60005U,
  0xbe8a7d873e063cffU, 0xbca67e34bec98b7dU, 0x3f039e80bcba810fU, 0xbdf4312bbf25b77eU,
  0xbe5aa1cdbe5f16c3U, 0x3ebfd7633cd4cdd0U, 0xbf05d16fbd75f755U, 0xbeaa23febd882008U,
  0xbdc2f18cbf3d0bd8U, 0xbc563993bdd25403U, 0x3e63ef013ec5bbeaU, 0x3daf07153e10abd7U,
  0x3e6824863e4586d6U, 0x3ea610dabd089e10U, 0xbece33233ec2a9b9U, 0xbdb2f2423db7fa1aU,
  0x3fd81462bdc60bacU, 0x3d9a75b7bdd25a0aU, 0x3fde63b53d70febdU, 0xbe6149d1be9e112aU,
  0x3ea27a123f095994U, 0x3da6a0903e9589feU, 0x3d59f178bf39ad7bU, 0xbe8e26a13e5b6dc0U,
  0xbe82ae89be71bd37U, 0x3d6235353e8ccf17U, 0x3e07b3463e4652beU, 0x3ca3934b3dd70f44U,
  0x3e240320beec6a07U, 0xbc32bbbabe5ea34cU, 0xbefebd77be535b94U, 0x3e8902d6bda9f0e2U,
  0x3e07ac98beb1cbb0U, 0x3eb4b2813efe4766U, 0x3e46720a3f103fb3U, 0x3e2e54fdbeb4d26eU,
  0x3dd496b23e961473U, 0xbd95bb6d3e12cbd6U, 0xbe98b9203c05c8d9U, 0xbe7a93b5be853b26U,
  0xbb62b2c1bf1c9a21U, 0x3ee36e2f3e5eee76U, 0xbbeab976bd0a82caU, 0x3c0f39fdbf614793U,
  0x3e2837d43d837345U, 0xbd87ebc13e7d6009U, 0x3dd6850dbd68c01dU, 0x3d99d5173f0b61d5U,
  0x3dc3cd8e3e948231U, 0xbd924dba3eb040edU, 0xbe61edfd3d5bea0cU, 0xbf1f16cf3ec5391dU,
  0x3d0ec9cebea2d2e7U, 0xbef83d503e7d64dfU, 0xbeb6a04d3e9f8808U, 0xbe89191fbdf122a5U,
  0xbec758b1bd7d5925U, 0xbe575203be592459U, 0x3e726521beead0b1U, 0xbe2523d9bf252d40U,
  0x3e6bf62abf1a8232U, 0xbf82eb4fbf3c0debU, 0xbe002df3bda8fab7U, 0x3e90cf043eae96a6U,
  0xbe8b233fbb493235U, 0x3e9758223e27ebfaU, 0xbddd95e2bee46e0fU, 0xbe800fcbbe336a05U,
  0xbf80c2f1be9a58f2U, 0x3e3353a03deac74cU, 0x3e6104ae3e060761U, 0x3dc71d413ea297f1U,
  0xbcacc6973f1e9ef6U, 0x3dd63b913ecac80aU, 0x3e907e68bf12e5b7U, 0x3eeb83db3e74a1baU,
  0x3e69264ebf667913U, 0x3dea8cef3ede9ca5U, 0xbf0392da3e7e11b7U, 0xbd2ad33d3edff91bU,
  0x3fcdf934bf9aa885U, 0xbe422c863e87ea2dU, 0x3f06a2b2bf42cda3U, 0x3cd25db23f21fe47U,
  0xbed5e4fd3e5b6667U, 0xbf37b1073f1a328dU, 0xbd5a3a96bc378014U, 0xbfd59ee83f0a0f5bU,
  0x3e5dc1ce3c83c4f4U, 0xbeedf8b33f251035U, 0x3d9e2e12be4cf330U, 0xbfa927293e7372caU,
  0xbcf09b9f3dc965c0U, 0x3d3562c6be1ee915U, 0xbe1917983ede68c6U, 0xbf3a4e30bcda23e3U,
  0x3ecedbc3be2fc9f6U, 0x3e2505893eb94881U, 0xbe7df4383d30f408U, 0xbea134c93e25c640U,
  0x3e54ed063ea911daU, 0xbf4846dabe24806bU, 0x3f460d0fbe8a5b94U, 0xbfc22dd2bfa74931U,
  0x3e8859393e5523f8U, 0xbe95db003dbe0c93U, 0x3ed9b9b0bf331a02U, 0x3ef8e913bc0cc5aeU,
  0x3ef609093e8d90d0U, 0xbef4f51d3eadf7f6U, 0xbeb4be2d3e4908eaU, 0x3f260fcfbf2e911aU,
  0x3f412f48be00a470U, 0x3ce1b34f3da456aaU, 0x3e61ebe7bf15dbfeU, 0xbe9485c6bea0a543U,
  0x3f990069bec13c9fU, 0xbe1075323f01825aU, 0x3db366023e310898U, 0x3d67f6873e4d2535U,
  0x3e9b0c4b3f3e56caU, 0xbe2f238a3d77c909U, 0xbea686db3ed69fe6U, 0xbf03e9123e19b779U,
  0x3d48bdfabe15dec2U, 0xbe1738d23e36f161U, 0xbcc1e3663ef1ac39U, 0xbf21031bbe9836bbU,
  0x3db149473d91d6e7U, 0xbf8bc06b3e9c0e3dU, 0xbf587bbe3d8ebae4U, 0x3e05ce083e76e77eU,
  0xbcd029f1bed879bcU, 0xbcc82b423e7b87e0U, 0xbe509170be2a76a3U, 0x3df678ce3ef33adbU,
  0x3cb5f3cbbdd3cef5U, 0x3e13bc8dbe962cbfU, 0xbdc401423ca1a044U, 0xbddf6fce3f250d2cU,
  0x3bc9dc1f3e954882U, 0x3e962ef43db35cd2U, 0xbdbd8d79be9d9c65U, 0xbd8a9f29bf349e56U,
  0x3e084a893ed7b948U, 0xbe3ee1753e29ed7dU, 0xbf18f4b6be694e9bU, 0xbf090f02c0142733U,
  0xbd385d72bf0608feU, 0xbe5e53b33e98fd89U, 0x3d274f5bbefb4424U, 0xbe77c7fd3ecb16d3U,
  0x3f30e306bec507d5U, 0x3f51f3523e9d9910U, 0xbf9a609fbda2167eU, 0x3d892d153d348ceeU,
  0xbe4e8123bc8e46d7U, 0x3e0b798fbbacbdabU, 0x3e31057cbf435e8dU, 0x3d1b9b4fbf567831U,
  0x3d47d5953e981648U, 0x3dd03a923f421411U, 0xbf3da87dbcb104baU, 0x3ee005003d8fdd84U,
  0x3c733bcfbd7ccc11U, 0xbcfb650f3ec57323U, 0xbf01b68e3dbfb35dU, 0xbeed77043e3b3e4aU,
  0xbfc2a4813d6592c7U, 0xbeb5141a3ec6ebe7U, 0x3e3ea77ebe8d3384U, 0x3ddd2018becff691U,
  0xbe09378f3e55b85cU, 0xbe81349e3eb331e2U, 0x3cb10ce13ed3d29cU, 0x3daad4e13e288ac0U,
  0xbf10bcc23e10fc18U, 0x3ec30a2abf972ddbU, 0x3e1f830c3e879db5U, 0xbe8843193e5ae093U,
  0xbe68a6da3e61b0c9U, 0x3e01f52cbd943e52U, 0x3d1b96b8bd4b9d31U, 0xbd4b83d9bfb4b9feU,
  0x3ea2ed27bea42db8U, 0x3da8a7d63f222625U, 0xbf0dbdc3bf3e5756U, 0x3e9f68f73d8a4fb3U,
  0xbe0396753e190f8aU, 0xbd1c6e8cbeed82b9U, 0x3ed288c6be8d6f16U, 0x3e38a349be20fd81U,
  0xbe0090763ba42b9eU, 0xbdfc16753ed4fa6bU, 0x3e971b4a3e4b81dfU, 0x3e4bd147be1a9ea4U,
  0xbda0868ebf0ee8bbU, 0x3cdb553b3ee73a40U, 0x3caf2d323d2a5e21U, 0xbc7ef922bae1a3f4U,
  0xbed9e5eebf2c475fU, 0xbe9ca1713e96c5e0U, 0xbea335a0bdb25e55U, 0x3f1259993f9726e4U,
  0x3deae73bbed49235U, 0xbf3579883e84cd57U, 0xbe9952143ea8e598U, 0xbca7b8943ea5fb0dU,
  0xbf29e7143e8c1e4eU, 0xbe553f04be596e1cU, 0xbd5f4bdbbf993bf5U, 0xbdad66e63e1176b4U,
  0xbe8716893dd78560U, 0xbeaca0a53e130655U, 0xbe07ce5b3e206688U, 0x3ea0c935bd01ece0U,
  0xbfd4bd98bf1d0285U, 0x3e60bebabe747a01U, 0xbfe933b63da487f8U, 0x3d7721ad3f440290U,
  0xbd72cf42be69ca08U, 0x3e3dbf453e21e0ddU, 0xbe8df00d3ea944adU, 0x3ece4c583e8db174U,
  0x38fec6473e9061d1U, 0xbe6b4184be010786U, 0xbe9c91233da8470eU, 0x3db245c9be910df9U,
  0x3e984c6abdb7afb1U, 0xbc1a1770bdf1bf45U, 0xbfc31e4ebe412ae1U, 0x3ed4633b3e3f50e9U,
  0xbeffc5c7bd9f8a34U, 0xbe281a6c3eb618a9U, 0x3e8831debedd907dU, 0xbd22c533beb29096U,
  0xbf0a5346be0b433fU, 0xbd3f5aca3e2a4341U, 0x3dee456b3ea75bbaU, 0x3c8221d03e77bf98U,
  0x3e6826b4bf0f84a7U, 0xb9d9c1c73de6c542U, 0x3ed36eef3ed2aa4eU, 0x3c22025dbed94a22U,
  0x3db721723e91720bU, 0xbd76dddfbbec26fbU, 0xbd895e33ba9527c0U, 0x3ec30cc8bef8accfU,
  0xbdcf0196be4d66c4U, 0xbdc2f8f23bb039e8U, 0x3dc222a0be5e5394U, 0xbdf57ba3be2e5933U,
  0xbeee416bbe80cedfU, 0xbd09a6a23d12ad29U, 0x3de2e7fabe9e117eU, 0xbdc82b463e15d4d6U,
  0xbe6ed3f6bd8b1f29U, 0xbe7a10473ef11fd2U, 0xbe63b3073d4704a5U, 0x3e7f7d66bf075447U,
  0x3d991fbfbf7cbb1cU, 0x3dcd575b3e538430U, 0x3ea9aa7fbdd42467U, 0xbcbd29dd3ec49c27U,
  0xbf12509d3ee9583bU, 0xbebaf3653e9b3965U, 0xbe864db03e3276c5U, 0x3c897e963e4d6f6cU,
  0x3ce91b973e6f9abcU, 0x3e84a83a3da7ca1fU, 0x3ee742c2beb71c08U, 0xbe37ddd73d4bc6d1U,
  0xbeafe2433bd4552fU, 0x3cfc73233c179259U, 0xbe8549163e8947a7U, 0x3d9674fe3dc9508aU,
  0xbce946053eb0b187U, 0x3ec211d2beaef56fU, 0x3e549f013d3a0f46U, 0xbe89bdeb3e6a0ee9U,
  0xbfaff8c9bd334f5bU, 0xbdcbded23cf490c0U, 0xbd11972bbe0b814bU, 0xbd3a348dbf41c2b2U,
  0xbd70015abd20d6e0U, 0x3db9228f3e8bb417U, 0xbe160c93bca36f68U, 0xbf86e6c1be3acd60U,
  0x3e0d1ace3be17879U, 0x3ea37f35be1f9550U, 0xbe5b850a3e44d669U, 0xbe76715b3e173d3dU,
  0x3e5f4b4f3e2bef7eU, 0x3e54cea7bd9b0946U, 0x3e9b5416bd4492faU, 0xbf0c1650be1230d6U,
  0xbe6286ed3e07edfcU, 0x3e940c15bdb9fd68U, 0xbc2573983d4f2d63U, 0xbe7b18a23db79b4fU,
  0x3e140827bd80f824U, 0xbef1e20cbd41cdacU, 0xbf384b8bbdeadf15U, 0xbcb9a7acbfc87a4cU,
  0x3e6369dcbe7984b1U, 0x3ed0fbc8be540b2dU, 0x3ddc0f223d16be0aU, 0xbea58218bdb95ccfU,
  0xbea9701a3d9b306eU, 0xbebff3f6beabcf0fU, 0x3e612e65be0fde6fU, 0xbe7ef265beafacc7U,
  0x3f4e0c703d64ea92U, 0xbf28208f3e1fea31U, 0xbde58a5d3d797b0aU, 0x3e505cf53e5868e8U,
  0xbf5afa73bd5365cbU, 0x3e3b5032becae40dU, 0x3e2e6156bebc1cb7U, 0x3c96d51c3e31b813U,
  0xbea01b36bd76904fU, 0x3dbeb7783e838a64U, 0xbdb89d71be5302c1U, 0xbf0c8406bd4ba1f4U,
  0xbe39faf03e374c51U, 0x3e6e63df3df5c8c2U, 0xbf33d9c3bb818cbdU, 0x3e04de4dbf962ebcU,
  0x3eb3e6af3e23d464U, 0xbd9638363eab6830U, 0xbfddf275bde03e4eU, 0x3ea65d8d3cf3f46aU,
  0x3d8e479a3de789ccU, 0xbea0e4c43e355727U, 0x3e07145cbf4b9930U, 0xbd8f9abdbd11aeccU,
  0x3ae3dbd9be43e1ecU, 0xbea10810be9bdc0fU, 0xbda130bc3e2913c9U, 0xbadda11abf5fcfceU,
  0xbe0931f5be2bbbdbU, 0x3e66b31b3d854f44U, 0x3e1a6eb6bda760e6U, 0x3ec7e5f53e892524U,
  0x3dfc5b7d3e91e62bU, 0x3e712b71bea6c68eU, 0xbe62dee2bf336827U, 0x3e157972be14bbd9U,
  0x3c00fea4bde4467eU, 0xbe04b56c3badfb0bU, 0x3dd332a3be47c327U, 0x3eb2fee73e934127U,
  0xbf0552773e8f6319U, 0x3f03c623be507b8fU, 0x3d41084bbf199c40U, 0xbdf76f773dc4f037U,
  0xbe88449cbe48d082U, 0xbeeb4ddb3efb7d05U, 0x3e2ed3e2be1f75ceU, 0x3e6ebf2cbe489c84U,
  0x3e17dd02bcbb303bU, 0xbdd140bf3e6b319dU, 0x3e2799613d473cbdU, 0xbea9fac43dbc99d9U,
  0x3e238293be5a70a7U, 0x3dd1bfdb3e5ce651U, 0xbf97dd003e79a40aU, 0x3d8db723be913da3U,
  0xbf754ee13edaa76dU, 0xbdb3b0dc3ebe0df2U, 0xbe938d393eac0e80U, 0x3e6adf52be7f64a1U,
  0x3e32e5ea3d046156U, 0xbea737d13e35f26eU, 0x3c5f05383ef60fa9U, 0xbd20a3613e29770eU,
  0xbdc4f1d93e234a3cU, 0xbb702a05bf0ab681U, 0xbd912e63bdb636d6U, 0x3ea3790abe7bf5b4U,
  0x3f01e7d53d45dc9aU, 0xbdc3003dbe2a5071U, 0xbe11f30f3e333c3bU, 0x3ec0e8d3bec3ed22U,
  0x3cc5401bbc8f13b5U, 0x3e935805bf21b864U, 0x3e55c78bbe32b13bU, 0x3f062df3be2705dcU,
  0xbe4ff246bdbd3f11U, 0x3e849356bf82ad0aU, 0xbe5a6a1cbe23f3d1U, 0xbd9b85563e2abf47U,
  0xbe28032a3dceda30U, 0xbe384f7f3e5b9e57U, 0x3dcd06233e630862U, 0xbd442e9bbec0675cU,
  0x3e7751493e2dc6c4U, 0xbe266f27beb2162bU, 0x3e41ae3abe110e62U, 0xbdb094993df62563U,
  0x3e921f413f193bf4U, 0xbce6ad3b3e9fdbd9U, 0xbe594289bd34a2afU, 0xbe5bc5083e61e996U,
  0x3e0f98603df2dde1U, 0xbe0d84b33e6895ffU, 0xbc873632bc64187fU, 0xbe9c8c083c49f36fU,
  0x3efa3efbbdee85ffU, 0xbe28c47abeb2db69U, 0x3e3fd8473e792441U, 0x3e3b69d83d9379abU,
  0x3dcb3e593cfa17b2U, 0x3e2b421e3da18bd4U, 0xbb0b18da3e0d30d2U, 0xbd32ea51bd369b86U,
  0x3ce9878bbe8bbcc4U, 0x3d79749a3e9c67dbU, 0xbc858ac0bbe9b7a5U, 0x3d1135f0be5b2832U,
  0x3e4b9efe3aa42842U, 0xbd39a550be691d07U, 0x3e2cac01bbbb2c69U, 0x3ef215173f16bb11U,
  0x3e722402bf161739U, 0x3dddd7173eaf2747U, 0x3f09fd2abf58d324U, 0xbd6975db3f266f32U,
  0xbef216b4be0179b7U, 0x3e120a48bb9cb0a0U, 0x4011e570c03b68c1U, 0xbeb7c83e3dac63ccU,
  0x3e176ac7bf82c74bU, 0x3e93c0893f1af47bU, 0xbdad471e3f0bef56U, 0xbf8d6cd43f126853U,
  0xbf0bc6c63c9dacd5U, 0xbe52937a3ee924d2U, 0x3dc8180ebec12ccbU, 0xbe989cd53f3f1f2fU,
  0x3da8fedebe90df5fU, 0xbda5e70f3e566f49U, 0xbe935ca6bde7e6c7U, 0xbee4dc2abf10dbe9U,
  0xbed001813eafc32aU, 0xbf1fb5c13db09678U, 0x3e0c2e2bbea0fbe4U, 0x3e80c9293ed2407eU,
  0xbef3bc37bda7a78aU, 0x3f4de0eebd826601U, 0xbd938fc2bc4f56a5U, 0xbf7753d0be9ef6f2U,
  0x3f04b18cbdc513faU, 0x3ef78380bea87921U, 0x3e45c7b13dba5072U, 0xbf11a6a93d552a49U,
  0xbbc431fcbfbfc587U, 0x3ef8b217bddd5908U, 0x3d392a983d1afe7bU, 0x3ec565733df0d2bcU,
  0x3e2f9e733f0a6014U, 0xbdfb7ca7bf0ccd47U, 0x3f06cd49bd3a54a7U, 0x3dd16bdb3e871f7dU,
  0x3e84af41bf2e94deU, 0xbef88336bf0afe2dU, 0x3f5048f1bf35c238U, 0x3e955a3f3f131debU,
  0x3f3ee63dbe6fd722U, 0xbe8b95b23f00c077U, 0xbe5ff6113ecdeeccU, 0x3d0dae913db5395fU,
  0x3ca173a2be041221U, 0x3e8af0e53e406140U, 0xbe9dd2713e0b0111U, 0xbd85f0013e123a85U,
  0x3d06f83cbe81a088U, 0xbf0df1993e4f6e54U, 0x3d258ca33d476bbbU, 0x3e80cd4dbcf0af93U,
  0x3f9edfefbe824b07U, 0x3e0a69193ea0cf9dU, 0x3eb06ee03f089975U, 0xbe8b166b3e83b4f0U,
  0x3e4a551e3d6a2a38U, 0xbed79b9a3f22fbc5U, 0x3f1f0547bdbd7295U, 0xbf2b601b3dc61b63U,
  0x3d4146e33cae3f36U, 0x3e4fb3cc3e805c28U, 0xbf0ed80bbec1ee30U, 0xbd6eb59f3e16eb59U,
  0x3e5423aabf262a56U, 0x3e99070c3cef80f8U, 0x3e3ca85c3e350149U, 0x3c4c2091bdbeb1e2U,
  0x3c93b8e5bdacdbbbU, 0x3e99ee133e58ac52U, 0xbd07fc2a3df74a5fU, 0x3d6c9dc03edbaf9eU,
  0xbeaf3769be0488f6U, 0x3e8d455a3d2ae0f0U, 0x3e2dec19bde0d751U, 0xbf894ee9bf00b77fU,
  0x3ebd88563d1ca06dU, 0xbe91208abe021b2fU, 0xbeb8f4f4bf2f6d73U, 0x3d42ac2e3db50c02U,
  0xbf28e23c3ea03590U, 0xbda38cc23ee70e1cU, 0x3e2f848d3f652f55U, 0xbe5f84a6bf58bf3eU,
  0x3d221fd63e849a61U, 0xbd78b68f3e6b7dffU, 0xbd80433bbf19a0deU, 0xbc91055d3d1a03d1U,
  0x3eb5dfc9bf174d22U, 0x3e6486043d659354U, 0x3f3530c73dc147b9U, 0x3d4514f2bdbbee8aU,
  0xbcc80b483e016e2aU, 0x3d2f6f243d929336U, 0x3eb0cf3dbf1ff417U, 0x3f2733f43ee662dbU,
  0xbe9acd6dbd7eca52U, 0xbd8aa2b53e5eafbdU, 0xbeb016f7bb814ea4U, 0xbf5661033e0c651dU,
  0x3e16fa8abf354cf0U, 0x3dca19d7bf24605dU, 0x3e888d803ed96dcfU, 0xbe8782dbbe86b7acU,
  0x3e8676303f2b9a64U, 0x3f1bfa1d3ed3a13aU, 0x3e8743ecbf0f5d14U, 0xbe3577703dd5660fU,
  0x3eb290f63ed1ae87U, 0x3f0e1ff33e0a59a4U, 0x3dca0275bf01a883U, 0xbe9d3de9beee52f8U,
  0x3ed30ac9bdc737c0U, 0x3de8990cbe852cb6U, 0x3ea340d8beefb1fdU, 0x3eb05c103f0837c4U,
  0xbeb05f203e6e7275U, 0xbd00ab2d3e8dd7f3U, 0xbcb33c22bcf52151U, 0x3e8dc9a4bf179e8fU,
  0xbd0f0d593e844c2eU, 0xbe568175be1c0582U, 0xbf800cefbedf8642U, 0x3e23b8773d9682d1U,
  0x3eeed635bd9cef8bU, 0x3f34f86c3ef4bc4dU, 0xbf3cbaf0bc4d24c5U, 0x3d07dd4c3d6a2fedU,
  0xbfce3b533da57dceU, 0xbd649423bd4880e7U, 0xbf18be84bf3d69dcU, 0xbbad21eabec2ec99U,
  0x3dcde8773f118e85U, 0x3ed840493e5127f1U, 0x3e67fbc8bead1b34U, 0x3dd07557bc17de8eU,
  0x3f16d4b1bdaec912U, 0x3c677b28be580a5fU, 0x3f66012fbde4cdf4U, 0x3dd923043f072de6U,
  0x3e99834ebe03a37fU, 0x3e47b0ab3f32173fU, 0xbc469e6ebea94775U, 0xbe039e20be4c4c5eU,
  0x3e2c573d3e519d29U, 0xbce324723e96478aU, 0xbd1f030fbd3c5508U, 0x3efeea21bd6e439fU,
  0xbe8587d73e2eacbcU, 0x3e890a1cbf530d59U, 0x3e15d1f6be0127faU, 0xbec8e00a3ea222baU,
  0xbf51cbdfbd5d3acbU, 0xbe40e2573e4929c0U, 0xbea0aaadbe03e2ebU, 0xbebca306beb268d0U,
  0x3da285a3be51abc8U, 0x3dbbe3cbbee88f58U, 0xbdd79e47bed06e97U, 0xbf902d86bdbab73bU,
  0x3ead3dffbd1408b7U, 0x3ddd659cbe97b45fU, 0x3e5f372ebe4e87e6U, 0xbf844cb83cd2737fU,
  0xbe0a73813ec0b9bfU, 0x3ded76ea3e514f9cU, 0x3e2dd8933ea1b05cU, 0xbba9d5293dbc6798U,
  0x3c2f39f4bf32c369U, 0xbec7edd0be8bcb2bU, 0x3ded38e73d7ecfb4U, 0xbf359dee3b1456bfU,
  0x3ec0e3ddbd5a8f9aU, 0x3ba869693e5f6e07U, 0x3d59440c3e95a559U, 0xbfa5c64ebcf99aa2U,
  0x3e54a947bec22844U, 0x3da13e0f3e4820e7U, 0x3e25e3473e8fb093U, 0xbe0842153ed45566U,
  0xbd813f4c3c8b996dU, 0xbe12443fbee32d68U, 0x3ea2fd63bea76e02U, 0xbda3cf223df474abU,
  0xbdd8bc293dd7f453U, 0xbf14d943bd8e3b79U, 0xbd903d30bee3cad6U, 0x3e77cbd5bd30e5ddU,
  0xbf5b5526bea80793U, 0x3cd57eb2bd55a064U, 0xbf8690723ea1a519U, 0x3e05581cbe824c24U,
  0x3dfc8b69be72f74fU, 0x3ef6214b3e988a81U, 0xbe154c8e3ef4089fU, 0xbe7b1a1f3e65fc16U,
  0x3d32649ebf0298e6U, 0x3e46e6f03f30106eU, 0x3e4a3b29be940a38U, 0x3ec09fea3f585574U,
  0x3b9b07f43d308101U, 0xbf2dfac5be40b1bbU, 0xbfb0826b3d326cf7U, 0xbdf9138bbd96c809U,
  0x3da82817be99ee48U, 0x3ea607223f10d7d7U, 0x3da813f73e93a10aU, 0xbd5678d8bf03aee2U,
  0xbf213cf43d2cdeafU, 0xbe376aba3e80fdfdU, 0x3dd79fcb3e507728U, 0xbedb62753d141f5fU,
  0x3daa2ef1beae4005U, 0x3dac1f7f3e0e6475U, 0xbee6dae13e1950f9U, 0x3c787d18bf13409bU,
  0xbd664b193ed3ea69U, 0x3dc52143bd9c2c47U, 0x3db791573baa851bU, 0xbcaa2e573d6c9255U,
  0x3d59648fbe829b15U, 0x3e15967bbc016aa6U, 0x3ed298d33e80bc2cU, 0xbdd9ff4abf303959U,
  0x3ef22800be4c0f03U, 0x3e1a8bb4be3c38c6U, 0xbdee4c5c3e02dc12U, 0x3dfe9dc6beb67ce9U,
  0x3ef1d4eb3d6f2051U, 0x3e3b3d1cbea84f98U, 0x3f002601bf3e8729U, 0x3e31c86f3ecb89b1U,
  0xbdea8c3dbf4bbb2dU, 0xbdbc392a3e5297a8U, 0xbeb987f33e862acbU, 0xbed640a13e5a391aU,
  0xbdc3b952bd94655cU, 0x3cf86437be576e63U, 0x3fa13e66bf076d3bU, 0x3e23a7053ec487d0U,
  0x3f8f33f3be8559c0U, 0xbdccc12bbf1b6bdaU, 0x3e971a863e70028fU, 0x3e8f95583e25e38fU,
  0xbdbc19d33e3db9f7U, 0x3e3373d83e0e5e60U, 0x3e8f1c9bbe83a597U, 0x3dcb42ab3d305f5bU,
  0xbec11509bf8a88dfU, 0x3ee62a8e3e8d8356U, 0xbe19fe9dbf2f5a27U, 0xbf499b6b3f0bfb6cU,
  0xbd40b06bbeede248U, 0x3c9241b73e9654d3U, 0xbf6008bfbed8568eU, 0xbf622932bf27013aU,
  0x3e03168bbdc6032dU, 0xbe28bf6cbfde6337U, 0xbf0a797abed97a95U, 0xbe7f97673e9ca36eU,
  0xbe172bfc3e28d7dcU, 0xbfbaece13f403dadU, 0x3ecb19c13dd4aad2U, 0xbe3e8b023ebdc991U,
  0xbe77eaf93e346112U, 0x3ed9a20f3ecf852eU, 0x3d67d28b3e5b7905U, 0x3e7376a7bedb6c70U,
  0x3e7ad9d3bf27735bU, 0x3e7cb36fbd394b5eU, 0xbeb1b7993e55b19dU, 0xbeb90e9b3e6b7ca1U,
  0xbde56304beb9a657U, 0xbd9ff127be7cab26U, 0x3d4e99d2be8c1e76U, 0xbf194f1fbd358a7cU,
  0xbdfb0a603db84492U, 0xbfeaaed73d1643eeU, 0xbdee5063bf008c2bU, 0x3f210b883e841c6eU,
  0x3cd72db8bef6abd3U, 0x3efffe6dbec55d8cU, 0xbf053ea4be8024f2U, 0xbea06c6b3e699066U,
  0x3ebcfce03efc3f2fU, 0x3d75f3f73d5c7d65U, 0x3e6d786abe1ba556U, 0xbd82d513be3fcc23U,
  0xbfc1fe5ebe933f89U, 0x3e1f1a5abec05607U, 0xbefe18ebbe07cdd8U, 0x3c101450bf6881ffU,
  0x3e34bf233f5132bbU, 0xbd2a87fabe6933eaU, 0xbdafb0ecbe44a968U, 0xbe12280b3ead64c0U,
  0x3e4598c13e114cfeU, 0x3ead8986bc88d0efU, 0x3f685a383deedf02U, 0x3eb2caa13f1dc03bU,
  0xbe316b4e3dd7248eU, 0x3e06b3a7bf3dadb0U, 0x3f832a36be9be1b7U, 0xbdf3d02dbe43e18fU,
  0x3e9261253ed81931U, 0x3d85e297bee7d0ceU, 0xbe8343e03ef37206U, 0xbe234357be9c550fU,
  0x3e408daf3e2ac21aU, 0xbe6aea60be9ff256U, 0xbe9ddfcabeaa465eU, 0x3e0e32033e5cdf3fU,
  0x3e5007c8bdf38bf0U, 0x3d36a8c9be873caeU, 0xbe76dca43e310665U, 0xbe990d04bd77fbe3U,
  0x3eb2224e3d4abb43U, 0x3da5ea8b3d023cf8U, 0xbdef149f3e987b59U, 0x3c59b763bd0aff06U,
  0x3e8e3b42bdb5755dU, 0x3d8f839d3ddf1ee5U, 0xbe5906863e1ca43cU, 0xbda4675d3dc49fd8U,
  0x3f07946bbe406812U, 0xbe54366bbe1a16deU, 0x3e537b093de662bcU, 0x3ea09e9fbedc8d4bU,
  0xbe603cf2beaa75c8U, 0x3eaca22dbdf2d9e8U, 0xbb1bcf993e282282U, 0xbeeb9caebdc36279U,
  0x3db579323e0cbcb9U, 0xbf2afad8bddaa3baU, 0x3f1939cebdfa40eeU, 0x3efe521c3e526a69U,
  0x3de88f663e32332bU, 0xbdea8d1dbee1effeU, 0x3f514d87be6a3a0fU, 0x3e5e863a3f0e8b3aU,
  0x3f5db4e7bee2284bU, 0xbd4d0413bf0c2681U, 0xbeacf431be1f4923U, 0xbe351a423e6c4915U,
  0x3dd0e96d3ef6b6efU, 0xbf23ae96be2670f5U, 0x3d98eb28bef1b23fU, 0x3ccf5dc73ee91f36U,
  0xbe125c82bb8735f7U, 0xbe9ae81c3ea90a4dU, 0x3e13272cbee2d65dU, 0xbe2e16acbd5218f0U,
  0xbd905f02be89e1f6U, 0x3ebcd507bf3c93c9U, 0x3f0720213f0cd27aU, 0xbe5255683efac5e1U,
  0x3eab4e4cbf098fafU, 0x3e77401dbec27192U, 0x3e7928403e6fc15cU, 0x3e9394713daf6b07U,
  0x3cdd04323e837669U, 0xbecbd4663ec20bf8U, 0x3efc6f89bf1db903U, 0x3e3117a0bbeea6d0U,
  0xbf02517c3eb4682cU, 0xbf5d1a59bf3217f3U, 0x3e8e2d283eb90719U, 0xbd380a853e91164aU,
  0xbe29b2833dce0f8bU, 0xbea1648cbf27ba86U, 0x3ed6513fbec2b65cU, 0xbdda7d6d3d4b7ce4U,
  0x3e4cc0c6beac51bdU, 0xbe97ea13be94a7d2U, 0x3ec7185a3e94c309U, 0x3eb58f3e3e4632b5U,
  0xbf2914b73e3e7394U, 0x3ec6f8b63e9a5b51U, 0xbeedecb4bf06035aU, 0x3e2b400dbe1a30f5U,
  0xbe12262dbf975bb4U, 0xbd11a622bf063ffaU, 0x3e0935c93e921cf9U, 0x3e90a8a73f153ebbU,
  0xbf17e0f23ec1bbedU, 0x3e6cc1763e109992U, 0x3d12b93d3e46b0b6U, 0x3df8a0a9bd8d6038U,
  0x3f5c1ff4be37578bU, 0xbd6558633f327269U, 0x3eebaeb2be72c460U, 0xbbf43f5ebe8662e9U,
  0x3ec5d1bdbd940b6aU, 0x3e184a62bea86e7eU, 0x3d7a2974bdd94212U, 0x3d86ae9abd85c43fU,
  0x3dbefe2cbdc5ef52U, 0xbd3ed4edbe22f792U, 0xbd164e443de13e5fU, 0x3e017195bccac8d2U,
  0xbc20a14e3dd619a4U, 0xbe2235263c9eed3dU, 0x3a36b6003de81b4fU, 0xbe2539e9be1c64aaU,
  0xbdd04497bde9f240U, 0x3bdf9b22bca26f98U, 0x3dd18548bd7aee1dU, 0xbc9ce4af3db2faa8U,
  0x3d06e7323dd264d9U, 0xbdc6877bbe1f0c34U, 0x3d9b1a363e0fa4aeU, 0xbdd348433d9f4a58U,
  0xbe2989c63d52d778U, 0xbdde05313da24eabU, 0xbe2f956cbd0e8039U, 0xbddaf435bcb8b8c8U,
  0xbe02f2aa3dec2290U, 0xbe02aa47bdf58049U, 0xbde1fa9bbc937341U, 0xbda29314be1ad499U,
  0xbe3048d1be028472U, 0xbc7ca652bd6cc405U, 0xbdebaf59bd834f2cU, 0xbd73d329be2aee98U,
  0x3dac1c40bdf9c79dU, 0xbe03494c3dcd96c4U, 0x3c171abdbe092f56U, 0x3dbf789ebdbdf749U,
  0xbd131a0dbe5dae61U, 0xbdff53823dc0cb59U, 0x3b7877ebbdc65729U, 0xbe39de32bd920175U,
  0xbd8428e83dc68338U, 0x3d59248dbe084537U, 0xbd930eaa3b1f1d00U, 0xbe18980cbd39a9d0U,
  0xbe02f3e7bd965f4dU, 0xbd37d0763c00e683U, 0xbe1d612e3dccfa5cU, 0xbdf7b5f2bce34340U,
  0xbdc772ddbe22fdb7U, 0xbe02801cbe3fb4b6U, 0x3e16f354bdf49d19U, 0xbd8f0d74be3fdab8U,
  0x3d159ff93d50b5ccU, 0x3ee198103ee8fa87U, 0xbec9fd98bd895028U, 0xbd399060be83baf4U,
  0xbf8211833eba6c33U, 0xbd92f2a0bf6b4475U, 0x3df414543e2dd5ceU, 0xb8522a583d836dd0U,
  0x3e3905413eeb6daeU, 0xbaea8122be591005U, 0x3ef4d2263f009ad2U, 0x3e7118093e001a4bU,
  0x3e85ae91bf3fbe24U, 0xbd1ba2263f24017bU, 0x3e3bc69ebe5260d9U, 0xbc041873bdb637e3U,
  0x3da38db2beae7a57U, 0xbdd46426be1d3f7eU, 0xbd846c00be1cea3dU, 0x3cd3a5d2be3c278bU,
  0xbe1c9c0cbc90a7b0U, 0x3f5f6ba63f3f7d3cU, 0xbe1020f23e4e644bU, 0xbda00384bf002e15U,
  0xbf2665f0bee2bb94U, 0xbd942acbbe0786abU, 0xbea4dcb23e1631acU, 0xbe6651733efa3b4bU,
  0xbf858a63befede1eU, 0xbddb3f7c3e69876fU, 0x3e19854c3ed3f3eaU, 0xbcef190d3e5fde18U,
  0x3e9c0491be72cd87U, 0xbea634273e680f53U, 0xbeec17d23e060855U, 0xbe74e9983c0747b7U,
  0xbfe2fe6b3c9f9606U, 0xbeb2f284be061744U, 0x3e8a95453f85dd21U, 0xbde8f39cbee7ac8cU,
  0x3e8f8663bed5ba8eU, 0xbf028b643daaeda9U, 0x3d9d3acabc744961U, 0xbdf380503e3aa2e1U,
  0xbfc04e51be7ffdbfU, 0x3db111d2bda8c51cU, 0xc00eadffbe2ee175U, 0x3c9551473f684baaU,
  0xbd1d8a983cc6ec9fU, 0x3e8de58a3ec708c0U, 0xbe2e9718be8e5011U, 0xbd36cacabe4a0658U,
  0x3a55a0af3cb3d106U, 0x3eb6e010beaf100cU, 0x3ece877ebc78aba1U, 0x3f11436cbeb7ae6fU,
  0x3e8794573edf2ccdU, 0x3e77b9f8be951d5bU, 0x3f9cbe82bca1695eU, 0x3eb33f85be6bf9e6U,
  0x3e89b7dd3dab63e7U, 0xbe921970be105a82U, 0x3eacacb43d550df8U, 0x3eac83613e747e08U,
  0x3df5b059be239e71U, 0xbee7ab82beb3fd0fU, 0x3e89dc30be66694aU, 0x3e0c6a46bed1a9bfU,
  0xbed2ce4dbea91a8aU, 0xbe42a1b53d92d302U, 0xbe6fc7013e2bcf9aU, 0xbe967de03e349d84U,
  0x3dab50e93e16d659U, 0x3f09b4e7bed21cc3U, 0x3db75971be882a4dU, 0x3e41eda1bd3df54bU,
  0x3eb02e6e3e9f389dU, 0x3e46ab79bdda9b66U, 0xbda7b5463ec221f4U, 0xbdee2a81be83e3baU,
  0xbeeb771cbd9beb57U, 0xbf5fd7fabf1875e2U, 0x3ea0dc7cbe7d07e2U, 0xbde77d45be0567b8U,
  0xbd159befbe966491U, 0xbd800e67be10985aU, 0xbdff3d9bbe4299fdU, 0xbe411523be7f7942U,
  0xbe2676b53ead461aU, 0xbe04004d3d3fbbb9U, 0x3e9d0472bea5c602U, 0xbab462b1bd0fd839U,
  0xbf05c6643e1ec934U, 0x3e649de83ddb85daU, 0xbd3b41583e1ac452U, 0x3ea3666b3e706c84U,
  0x3f179cd93e9c5c4fU, 0x3e102936bcfca857U, 0xbd9b4f29bed04ff1U, 0xbdca50923db047a1U,
  0xbefb1dd9bda01231U, 0xbf92e1003d9a7a8eU, 0x3db0efaf3eaf55ccU, 0xbe94a8713d6b08aeU,
  0x3f103b683ed82960U, 0xbdf59c4e3f82d4dfU, 0x3ea27a953e90526bU, 0x3e5546e33e8c6be9U,
  0xbf127c68becf733fU, 0x3ef99150be3931bbU, 0x3d0ced8dbe3b5990U, 0x3d94b5233c89b91bU,
  0x3e4209553e57d660U, 0xbe8f4b6abdd0593cU, 0xbf53f5553f027018U, 0x3f2b9c223e8e3794U,
  0xbea9f0433e99c1a5U, 0x3e0d50e6bea74cfbU, 0xbdda9861bed42293U, 0x3ec43e0abc67eb62U,
  0xbb433a7b3dd1eca4U, 0x3d0416fdbe8cad21U, 0x3eb12364be0abde8U, 0x3e100e753e08fc20U,
  0x3e0ee05b3d9eb752U, 0x3c97c966bc998f79U, 0xbe9447dcbce3d830U, 0x3f2c9395be02cb73U,
  0x3e2e21e03f162b4aU, 0xbe9f19eebd74f540U, 0x3eca09bdbf11e476U, 0xbe93c27f3d021a34U,
  0xbf0a72c33ee43ebcU, 0x3ec4f628bd8991a2U, 0xbe2f9b73bcb1f615U, 0xbe81f585be902cebU,
  0x3d463ae5bf0ded75U, 0xbea23120be41481cU, 0x3e71825ebed7921bU, 0xbf2fcb9ebf0afd9eU,
  0xbf0c7db73e52fc12U, 0xbe208116beaf1049U, 0xbe876a2e3c4651d6U, 0xbf9543e93e87aa4cU,
  0x3fb1bd5b3de8a578U, 0x3d8c24903d9a257fU, 0x3fcf13c33dae91b3U, 0x3de78856bebf9c7bU,
  0xbe1973bbbe0a2017U, 0xbf2d491e3ed95c1eU, 0x3d70255e3ea08ea1U, 0xbcfc11003ecb6b2bU,
  0xbdfe75bcbf55421aU, 0xbfa1ed033e5faf98U, 0x3ee47a50bf110e4fU, 0xbe3600ffbc70d279U,
  0x3e8af1dcbd443e6eU, 0xbe9dadca3f016aa2U, 0x3f2ffc89bea1bc9aU, 0x3e89612f3e2f6347U,
  0xbe41ec8ebf65b74dU, 0xbf16a10fbf035de8U, 0x3dd208033eef7b03U, 0xbf6459f83e93c529U,
  0xbbc2ea89be6ad30bU, 0xbee07ed83f08caa5U, 0xbdac85fa3e75f50bU, 0xbe58e5153f70dd94U,
  0xbb9dfb8f3e13d4f7U, 0xbe703d5e3ea7cb49U, 0x3da3ec87bdc2ccd9U, 0x3edf19073dd056ccU,
  0x3e18012cbea6497fU, 0xbe6a5d193e883449U, 0x3e95d9743db7a67cU, 0x3e9162c9bde9442fU,
  0xbf3b864ebe48604bU, 0xbe0827113e824257U, 0xbdf8eb3abe418edaU, 0xbedad31bbfaf42f5U,
  0x3d2a54a9bf2dbe27U, 0xbe146872bf03e67eU, 0xbe822be63db65d8cU, 0xbf4861273ea52868U,
  0xbdf9637dbe66333dU, 0x3ec59941be0c1a6aU, 0x3911d0093d327275U, 0x3f6e3cfbbbfe0045U,
  0xbe1f7b96be9a8b8eU, 0xbe27d1c9bf15ec92U, 0x3f0dc0233e745464U, 0xbf3b20873ef1421dU,
  0x3e99e6cfbd5414fcU, 0xbf64ac473dfa78a7U, 0x3eea2ec13f3294d7U, 0x3ec0cab3bdf59980U,
  0x3f3a69abbda9b326U, 0xbd1123d13e5f6628U, 0x3ebcaf843ec424f4U, 0xbebb173ebe41c60dU,
  0xbe9aecc13ea545f0U, 0xbf169601bdddececU, 0x3e3a8381bf15ee40U, 0x3ecaa6db3db7e8b5U,
  0xbe94166abee1f339U, 0xbabef0e33f2bd68dU, 0xbb24123abf2bc5bbU, 0xbec62dbc3efd9806U,
  0xbff23bb8bf36cb06U, 0xbd3507c0bf0076e2U, 0x3f0333a2be09212cU, 0xbf2928753f1f3a56U,
  0x3d74481ebe6211aaU, 0xbe8bd17ebd3cdd40U, 0xbd9228d33cb14119U, 0xbcb23b883dc97c45U,
  0xbe9e01033ed043baU, 0xbea255713f6b30c2U, 0x3f18f36cbf6b5b15U, 0x3e33bf653ec0bd85U,
  0xbeb29a363ea6d483U, 0xbf2f6f61bf146ef6U, 0x3eaec8a03ec7ffe3U, 0x3dca8e703e4303ecU,
  0xbea8dc6d3dc071cfU, 0xbe0b25583e8b3771U, 0x3e670bb3be89dfe1U, 0xbe0f70633e688c95U,
  0x3e4aed87be4fb102U, 0xbe35ff80bef93b3bU, 0x3ebfa83c3e45d5faU, 0x3d77ae5fbe9f3dc6U,
  0xbe19b1b23e48239dU, 0xbebf57383ee26d15U, 0xbe89512dbe81defdU, 0xbe6a6090be58b2ecU,
  0x3ed347c2beefb92aU, 0xbe6429b1be37b10cU, 0xbcd38eb2bf0d7b37U, 0x3e0455093f4945e0U,
  0x3e28b8ea3eabe193U, 0x3d60c633bda3a6e6U, 0xbeb3f8d43ea36575U, 0xbe818d3dbdf8d6ffU,
  0xbd413bddbf1e1a23U, 0x3e15e45c3ed2c4b9U, 0x3ebf7f72bdabed8bU, 0x3db2f8cfbf8c538dU,
  0x3efb80ad3f144aa0U, 0x3ee1613e3cf86458U, 0x3b8adfe8bf1013faU, 0xbe6eba253f2f99c8U,
  0xbe60933ebe865aafU, 0xbf02f95a3dfa3143U, 0xbf2da5a53e27b83eU, 0x3d855143bef64976U,
  0x3edef7b63ce02d46U, 0xbebe289e3db39f28U, 0xc00939fbbf37cfe6U, 0x3ef2470a3e68e1b2U,
  0x3e7e5ef5be26f448U, 0xc0031295be70857cU, 0x3e3e252cbe90b739U, 0xbe1f51d7bf20bf39U,
  0x3c64377cbe055ddbU, 0x3d8a760a3de727dcU, 0x3f0282fa3e683c38U, 0x3e0d72dcbae81633U,
  0xbe0be5c13dd29e30U, 0x3eead4113dccbdbfU, 0x3e232fdfbf782587U, 0x3ed2edc5bd806aa8U,
  0x3df0a0af3ed3fad7U, 0x3e5260533d797fc7U, 0x3e1ea8cbbeaef51dU, 0x3ec631153f137bf2U,
  0xbf9102913d9a8201U, 0xbe79f0e73e213db0U, 0xbf61a0c4bf58050dU, 0xbfbcfa783e2961e7U,
  0xbeb6ead2bd5141a4U, 0x3f1c438a3f36dffeU, 0xbe7e57ee3dfc9189U, 0xbeaab4303d0a5cb9U,
  0xbeceb9483e31c54eU, 0xbf8677163d220968U, 0xbf2c7ba13dd196d4U, 0x3f43c6e1c01665c9U,
  0x3e78ee55bd529811U, 0xbe5ea184bea6590bU, 0x3e56c20fbdf3ec5aU, 0xbf3466c6bd55c288U,
  0xbeb62543be45a303U, 0xbeb1eaf13efe903fU, 0xbec8196f3e7a46c9U, 0xbf18bf3bbe5d9fa2U,
  0xbe9e7d2fbe6f9ae5U, 0x3c54e4a63f2b1a6fU, 0xbf358e28becc3b2fU, 0x3ed3b3aebe0bd0cbU,
  0xbf0089273dec14e0U, 0x3e680b223e32d6ccU, 0x3e741e9f3e1549bbU, 0x3da71a6ebe99d54bU,
  0x3ebcffbabe767b41U, 0x3e4ce4733f9b3cd1U, 0x3d89a6323ef04130U, 0xbdbd7e2cbdde15a5U,
  0x3f931521be0fd21fU, 0xbd20721e3dde6448U, 0x3ef8570fbe8cb97fU, 0xbf2eafae3b90ecbcU,
  0xbd14cb7cbda8d385U, 0xbe812d6f3e3c4bd8U, 0xbddc32ccbe3d0c8cU, 0xbceacc4cbe03f88dU,
  0xbe74b4a03ecb8d59U, 0x3da870093e83b1ecU, 0x3e3799cabe56e8d2U, 0xbc2af486be613eb3U,
  0x3d2ecf543eab5014U, 0x3e9e4d023e4c0bcfU, 0xbdf0f4233dd05ca7U, 0xbdbc21573b82f375U,
  0xbdeb84893e01076bU, 0xbeb4bf233d82e354U, 0xbed49394be90d207U, 0x3e8790c7be66eea4U,
  0x3cc4ae25be9e5887U, 0xbd2efcfc3e13726bU, 0x3d7124d2bd753324U, 0xbf359b9cbed410a0U,
  0x3d656fba3d7627b4U, 0xbea550df3cfa67e8U, 0x3cb3766cbde1b766U, 0xbcd13552bf1550b1U,
  0x3d6c1c883ddb0f59U, 0x3e40a1db3e1976e0U, 0xbd95586b3f325681U, 0xbe785a7bbf428c6dU,
  0xbe683bab3e8fb924U, 0x3ebca131be8059a8U, 0xbe790afd3e0df3a8U, 0x3ce8bfc1bde766e1U,
  0x3f2c1e3b3ee7970bU, 0x3ea93e0d3e8d381dU, 0x3fcfc68a3d4ef3b7U, 0x3ddc71a13db2ae41U,
  0x3dfaff38bebc7763U, 0xbf00e5153d54bc1dU, 0xbe1e84cb3ec66c00U, 0x3d6158fdbebe3aadU,
  0x3eb0a65ebd1345a4U, 0x3e297581bed509ceU, 0xbd2d2d41be25eb28U, 0xbdf0de703e2a1e28U,
  0x3cd6b27f3ebb149eU, 0xbbc14cf53ed8f4c9U, 0x3e8153f2bf69fd68U, 0xbb23f69c3eb4a70bU,
  0x3efafae9be865eb6U, 0xbec150f9bee977c5U, 0xbe1a8af23e38c3d5U, 0xbd1f3f953ec41298U,
  0xbe4f063bbd10d255U, 0xbe85442d3d87183eU, 0xbd85b190bdff8a79U, 0xbc899d0e3f201390U,
  0xbe27708c3d6fc7fdU, 0xbe30773f3f0cb211U, 0xbe62a79abd82474eU, 0x3dea00753edae5aeU,
  0x3cf4dbd63dd5a384U, 0x3eeb9250be9f59d3U, 0x3e09dad7bf1ae4e4U, 0x3dd2f5d63eb0bb1cU,
  0x3daba6f43eb851eeU, 0x3e8e738c3dcd637bU, 0x3f16628e3eea966cU, 0x3dca7752bdcdf96bU,
  0xbf0a36513e410b66U, 0xbf789846bf8fca0bU, 0x3ebd3f863e82d0caU, 0xbe87a5693e335946U,
  0x3eff53eabec222ebU, 0x3d795a863e2b0d3fU, 0x3ea7be703ec2e466U, 0x3eafafdf3ed386faU,
  0xbe8cb8b63e4a9318U, 0x3a9f87b73f0041d7U, 0x3eaf0ade3e14b384U, 0xbd15a5a33e09fbb6U,
  0x3da7c412be27134fU, 0x3b59c49cbe3b12abU, 0xbf361ce2bf60ad0aU, 0x3da1af8b3e3718a4U,
  0x3f18641abe9c671cU, 0x3d16748dbf1e7de8U, 0x3dcc073a3cabb050U, 0x3e5eaef0bc80d80aU,
  0x3eb832493e27d9acU, 0x3e95a1563e87d8b1U, 0xbed2760d3ebd7a68U, 0xbf1316c6be19a1a9U,
  0x3e13fdfa3e12e110U, 0x3e5ac68c3f7c6694U, 0x3d4db4bc3f2144a1U, 0x3e23a51abf11955eU,
  0x3f383df63e3f3203U, 0x3b5df2a23ecfe017U, 0xbe9d287a3ec40d0cU, 0xbf4bd1fc3caf8510U,
  0xbdc1cf0e3eb5f332U, 0xbd17eed7bd31ef9bU, 0x3e689e7dbc7cc741U, 0xbe57c7e53e93ca79U,
  0xbe78ffa6bee2dd59U, 0x3f0501f23f661f81U, 0xbc2479a53dcad69fU, 0xbf0127b23e0af4cdU,
  0x3c9111b5bd2cccf0U, 0x3eaed48dbde80969U, 0xbe1f10d43e8bea9aU, 0xbd872de1bece8684U,
  0x3cb43c1dbd43ed94U, 0x3ed61c023bce55c8U, 0xbea8a865bcbacc6cU, 0x3db77c8ebe3eae08U,
  0x3d75f1253eb735b1U, 0xb99182c6beb7efb7U, 0x3eeea898bea73580U, 0xbe774b4c3c8a4a7fU,
  0x3e0cb2973dc7d7b8U, 0xbe3b643fbe604f7aU, 0x3e7df304be09fdcdU, 0x3e985b7ebeedecabU,
  0xbe0526523eb175baU, 0x3d25b2153e5a30fbU, 0xbced251ebf08babcU, 0xbea25ec1bf65f042U,
  0x3ef97dffbeb48efcU, 0xbec6de333db4317aU, 0x3edb30a5bea48587U, 0x3e081aacbf219d28U,
  0x3f0bec763ca5937eU, 0x3e1c55b83e80df7fU, 0x3fdda09cbeca8cabU, 0x3d7aaceb3f21168cU,
  0xbf404ea43eeac6eeU, 0xbe39bb563eb6f13bU, 0x3e9976a63d210d00U, 0x3efeac443e213888U,
  0xbea07c82bd8c2917U, 0xbd866dc5bf18c4a4U, 0xbf9ac6b93f21cc10U, 0xbf4ddd67c0205d05U,
  0x3de39beebeb05c57U, 0x3dd71a473e829372U, 0xbedc5fde3eba6a1eU, 0x3e176cbb3e9c36a1U,
  0xbdd8a92cbd4b7c27U, 0xbd0f1e35bf419552U, 0xbd8a4a12bf0138c0U, 0x3a61da5a3f23acf0U,
  0x3d6fb19b3dbd2406U, 0x3ec4711cbf1d07a7U, 0xbdc9e9b9be9d91b6U, 0xbe212a6f3f233e80U,
  0xbdb20c003de5355eU, 0x3d267c003d4f8170U, 0x3eab75b0bea00aa5U, 0x3dd683b6bef594ccU,
  0xbc42f5fa3e465cd7U, 0xbe9fa8953dd7cf35U, 0xbf8dda95bf73faf2U, 0xbed468aebe8e36f9U,
  0xbc4d7089bc58cb66U, 0xbe63fa7b3e167b8fU, 0xbd3ea6adbf2c8ca1U, 0x3e8b8bc73f0cf668U,
  0xbd4df76cbe74fec2U, 0x3fae01f13f39e421U, 0xbd30558bbf8b8632U, 0x3d7e2914bda406f4U,
  0xbf25b7723e41e0fdU, 0x3f4340373ecd4b41U, 0xbe942e2bbdc0d320U, 0x3e80e319bea0180dU,
  0xbc6e4f553f1ba3e4U, 0x3c0803bb3e74cb0cU, 0x3d64ee24bcdb1232U, 0x3e501cc23e4a167fU,
  0x3eb36e113ea3a08aU, 0xbda176623ee9aad3U, 0xbf6c7b143e469c89U, 0xbe4aee5ebe20be29U,
  0xbf8804033d75da6fU, 0xbe8bd9703f7e25baU, 0xbdd7bf40be8d016aU, 0x3e835a42bf003fbbU,
  0x3e8d3ed1becb6467U, 0x3eb66b3e3e6d58bcU, 0x3d4bcc633e0ea160U, 0xbe8567bb3de8904bU,
  0x3f1e5924be1e5b24U, 0x3d282c4d3dbaf135U, 0xbd956c053e84d1eaU, 0x3e86d32cbe4cd40fU,
  0xbf6f8838bdad6a3eU, 0xbcf7a3763d848d01U, 0xbd2afe91bf160761U, 0x3b91b7863e26ca53U,
  0x3dc1a5c03ed97d93U, 0xbf1e2483beb2fd11U, 0x3dece8f7be4ade82U, 0xbfa6f6023ef71366U,
  0xbd8ede113dc21788U, 0x3d27ab83be7c05c0U, 0x3ef202023eda9bd4U, 0xbeb24c36be3fd270U,
  0x3ea24cdc3d95ab76U, 0x3f06f0b6be34324eU, 0x3da926633aed4985U, 0x3d8f7fca3ed91e3aU,
  0x3e98e438bd2fa328U, 0x3e2c29d43d01dda7U, 0xbeda19c83ea4ce33U, 0xbf15ef6e3e4a9b05U,
  0xbe9a29f3bd111190U, 0xbf0170563ee62286U, 0x3e1ddb7fbd5337e8U, 0xbf9759ccbf019192U,
  0x3e5a27ab3d7e181dU, 0xbe3f25e53e4d1e74U, 0x3e4c24f3bd38978dU, 0x3d8dc205be88df62U,
  0xbe99427c3e0c852eU, 0x3f138c393de68b9bU, 0x3daa8c1bbf16072bU, 0xbf8114f0beb99cf4U,
  0xbf0340e33da09c24U, 0x3ee9c9ab3c86a36fU, 0xbe832ac63e6933c9U, 0xbd6044e23daae559U,
  0x3e8d8468bd8c8fffU, 0x3bd4ca52bdaaa88fU, 0xbf962afcbe561024U, 0xbdf210ab3e44e163U,
  0xbe141de5bea9ba9aU, 0x3e2a9d3a3e77b3feU, 0x3d4a2f41bd20c520U, 0x3e80b19fbe12d9c9U,
  0xbe258f813bf33bd1U, 0x3dd5405b3e0626d4U, 0x3bc5444ebe20f7e6U, 0x3e145e80bf767d0eU,
  0x3d852bc7be4bea0dU, 0xbd77f5a93e4c5887U, 0xbfb51ecb3d96ce63U, 0x3de63ead3c69751aU,
  0xbe84173d3d0d0cb9U, 0xbe6d1a99bf92dc98U, 0x3e3b4c3d3d0c6d47U, 0xbdac81bb3d876d4dU,
  0x3e2ad4153df925fcU, 0xbeb99b0fbe9cabdeU, 0x3e11aaad3db3f674U, 0x3e073e9f3da57b46U,
  0xbd8f142a3e8fdbd7U, 0xbe984fcbbcd02056U, 0x3d3dde89bdb9091bU, 0xbd83f57fbe6f7f22U,
  0xbe16b6203d55afa1U, 0x3ee561a03c5d36f9U, 0xbd7c7b513c9c0badU, 0x3ed539a63e0122bfU,
  0x3d9ed9543e6b907aU, 0xbea3d2e53ea407e5U, 0xbe6076d7bd83cef6U, 0x3dd048fbbeda5ae0U,
  0xbe657739bdd0bb4dU, 0x3e2b19a53c58b2deU, 0x3e3d0000be67e068U, 0xbe7c086b3e75ac38U,
  0xbdf48e353d4d9cfcU, 0x3cf5a5fe3e572bc5U, 0xbea1d1f33d69fe64U, 0xbf596752be1c198fU,
  0x3e5659f93e05382bU, 0xbd34c3afbe759461U, 0x3ccce4753e595553U, 0xbe9cbe2b3ea517edU,
  0x3e4436c63d36ae29U, 0x3e2d4341bd0f898eU, 0xbfc8c9c5bbf983ddU, 0x3e275c69be49fd5aU,
  0xbf82b4723e3853dfU, 0xbab6d2c2be42f668U, 0xbed1bebf3ea0025eU, 0x3e023b783dc27c57U,
  0x3dfcb5e6be87148aU, 0x3df1ec83be884f85U, 0x3e05810e3eaea654U, 0xbf06bb86bebced0dU,
  0xbe48be8a3ecd0b1aU, 0x3d500963bf86ab5eU, 0x3e6df467bf27612bU, 0xbeb343bb3e902484U,
  0xbfc401973eb09beaU, 0x3dfc1cc0bbee1146U, 0xbe3058a53f4dc6d5U, 0xbf194da2bfe51f20U,
  0x3e00463b3da40544U, 0x3e80ca073e94c31aU, 0x3ea1a0903ed8471bU, 0xbf58bb04be81954eU,
  0xbe7107ea3c208b88U, 0x3d67e324bd055acdU, 0xbecae6c63e1d03f9U, 0xbf3459d13c90592fU,
  0x3d03f700bf1abeabU, 0x3ebdf9d83f4fc4fdU, 0xbe83adaebde1baf6U, 0xbf42c32bbe8cf4bfU,
  0x3e1533443e5a674fU, 0xbe39b36fbd854951U, 0x3ede14b13e82e4f7U, 0xbf455679bdb5a74aU,
  0xbd430fdc3dfbfac5U, 0xbc83763e3e5c4ab2U, 0xbf2523593dc42798U, 0xbe5cc1433e51cc65U,
  0xbdad5cf6bc6b9293U, 0x3e32badcbf00bc80U, 0xbdc7658f3e13f8e7U, 0xbe6d831e3e8996cbU,
  0xbf22456c3cf49faeU, 0x3e73e086beff92c0U, 0x3e7141853f4dddf8U, 0x3dc1cfe53f255877U,
  0xbe493dacbe3c475cU, 0xbfb70c6fbec89cc2U, 0x3eb48da1bf07f0ecU, 0xbea21a3d3e012ca4U,
  0xc0215d32be406b07U, 0x3e524553bf0bc3e9U, 0xbfe0a7863e3f1a03U, 0xbbe4735c3f8bc075U,
  0xbf43d4b0be7fccddU, 0xbe4c06a23e26bf84U, 0xbe38947b3ee55fc5U, 0xbcc2e12b3d9e0445U,
  0xbdf7840a3e39aed5U, 0x3e0731c13e1e36c6U, 0x3d1fc31a3cf99f1dU, 0x3e770addbf366724U,
  0x3d2c603ebe92eef8U, 0xbd9e1cce3ddccdf4U, 0xbfb9b3863e0db9a5U, 0x3e3331693daca824U,
  0xbebde7bf3df09704U, 0xbefcb4223d09ef79U, 0xbcbe72c4bd9fa99aU, 0x3e1ccbf0bf3e4e17U,
  0x3cc4739e3ba6093cU, 0xbf10aa6bbe506019U, 0x3e4702033e8d8ee2U, 0xbed6c33ebe86c7acU,
  0xbdd2c5d3be7fbe0dU, 0xbd331b02bd52749eU, 0x3ce0d826be7d0e88U, 0x3e487884be41e742U,
  0x3d6b085abd1aacbcU, 0x3cc6ae98bd8ffe4dU, 0xbcd83bf7bdfcbdb0U, 0x3e425487bd30b05cU,
  0xbc88d5433d8db56cU, 0xbdad13553e680ad0U, 0xbcd3ffbb3dd09424U, 0xbeed260e3e9ab598U,
  0xbe26f30d3bcb019fU, 0xbdd9e6a13d9bc80dU, 0xbe4c2ec3be1edb4cU, 0xbe1f561bbc2e7af6U,
  0xbe8c750e3e9505c0U, 0x3d501f5c3e594aa6U, 0x3d4dabffbcc744d3U, 0x3eb2250cbe81266cU,
  0x3d869730bf05750eU, 0x3dcf172dbd225f80U, 0x3d53c84b3e860e5fU, 0xbe8bd7013ea12952U,
  0xbe73149abe35c52cU, 0x3e824ccc3e1b7340U, 0xbe05f3053ed6b126U, 0x3b9da797bea154e9U,
  0xbf3163333e57c29eU, 0x3a92e78b3da7f3b8U, 0xbdf96ea13e9ea36fU, 0x3deca290bbbaebabU,
  0xbe6a7554bebfc2b6U, 0xbeb2afccbe53997cU, 0x3e3376d5beb81f2eU, 0xbebd32b0bdf529f7U,
  0x3dff421c3e9f1085U, 0x3e517046bdc12d1dU, 0x3db0fe0ebce5eb9bU, 0xbf0204c83e2d67dbU,
  0xc020dc4b3ec3e921U, 0x3d83d1973dd453a6U, 0xbf1697e7be12e01cU, 0x3d6537d73e1733a3U,
  0x3dac8af8bdcb3bedU, 0xbe582a31c00790d5U, 0xbf122c6a3e8cbebaU, 0x3ee4a6563ea4fb7cU,
  0xbe3f90963e2c1d9bU, 0x3d1b3fd9bcf5c6a8U, 0x3f67b474be96b424U, 0x3e1703173e1ec1fbU,
  0x3d94fcebbdb26060U, 0x3e61defdbe301bf7U, 0x3c887c0ebe95ac4dU, 0x3d9dcad53e15a9abU,
  0x3e4455373ee5fa22U, 0xbc588026be8da21eU, 0x3e82efd73ea256c4U, 0x3e336d1b3e32a513U,
  0xbd92d8803dc199e3U, 0x3e8bad11bfadc41cU, 0xbd6b4e41be125be2U, 0xbf107c33bf85056dU,
  0xbe781bd63eb40579U, 0x3d51de863d53b102U, 0xbe229d953e979e76U, 0x3b1c29283d1580caU,
  0xbf7a24a23e86ee34U, 0xbd943808bdd0e266U, 0x3e290f72bfbfcb14U, 0xbe9f5c5cbeac0ba3U,
  0x3ed190b43ea5bbfbU, 0xbe10d8d8bdb78a89U, 0xbe18741a3d0eda1aU, 0xbea90f16bdb9e2feU,
  0xbe93aa563eb03a3dU, 0xbe848683be3bc248U, 0xbea35ef03d2c1b18U, 0x3ecde5c1bff38401U,
  0x3f2495f73d76e27bU, 0xbeb161fa3ec6ecf2U, 0xbc3a04a1bd082f03U, 0xbf560b07bf01c561U,
  0x3f17ee033e4cd37eU, 0xbea089dbbd7aa237U, 0xbe7d41d63ecb38cbU, 0xbee8ec23bcce5146U,
  0x3eafb9e7bdf28530U, 0xbe97f02d3e83b2f7U, 0xbf4bdd63bd64b847U, 0x3e653650be65b3ecU,
  0x3d9c99e93db4e42aU, 0xbed22da3be44aca4U, 0x3ee9937fbf153c7bU, 0x3e1534efbe9cab06U,
  0x3e940958bbbbbbf4U, 0x3eaeb0bbbe8d0898U, 0xbd6ad0dbbe0cc526U, 0x3e6ace2bc003a658U,
  0x3da4edbe3ec3b5c0U, 0x3e4aeaefbebe08adU, 0xbe6783febf0da9b7U, 0xbdc8e8e6bf1bdf5bU,
  0x3e60801b3ebf1b72U, 0xbd65f82d3eb3a96bU, 0xbd2c3cee3e9ac7b1U, 0xbf75a861be9c7112U,
  0x3e295e5bbe1fb8c8U, 0xbcd9ac9c3dd68a40U, 0xbbc6c15c3dfe334bU, 0x3d8e1af93acd5dd0U,
  0xbd14f81f3d890a58U, 0xbd6302f23e1ffdd2U, 0xbe36321c3e88117cU, 0x3e8450363d042281U,
  0xbeb0b8653e2c0222U, 0xbf2e3eb83d8ddfebU, 0xbde9da67bde5341aU, 0x3ede4c19bebadd2aU,
  0x3e253d08bde05de0U, 0x3eb387373d646310U, 0xbf25200e3d7be643U, 0x3f0e2fccbf89e56aU,
  0x3e1a624d3ddb5e47U, 0xbea727f73d89cd94U, 0x3f392c80be3155adU, 0xbf0833243ea0929bU,
  0xbd7134843e868d73U, 0x3e6cc530be811dd9U, 0x3f01c48ebf43e516U, 0x3f0d44f8be2cebfbU,
  0x3e0033383e88034fU, 0xbe7e3070bd2875c3U, 0x3e68c1f0bf3493a7U, 0xbe2c0581be6ea346U,
  0xbdc8a80bbe17650bU, 0x3e1456023d44a54eU, 0xbe6846c1bda4130aU, 0xbd93b5423e4fb068U,
  0xbfbb31d5bcc85ffaU, 0x3e75a1b03e8de33eU, 0xbe3fbf91bf62fc19U, 0xbf6a0f9cbee4bd39U,
  0xbde6afc53e0e282bU, 0xbe95605abda8e60eU, 0xbe656e24be5a76d3U, 0xbe93acd63e1a3ae8U,
  0xbec7724ebc1c63b9U, 0xbf125a653f278417U, 0xbe9da2283d00a2f9U, 0x3e776e703e93ee28U,
  0x3eab9e9d3e6b2b6cU, 0x3e81b09bbeb4e7ffU, 0xbd7d4c583cc81546U, 0xbd08d7c1be2f923dU,
  0x3eb04b4cbf06b9d4U, 0x3e73fadabd919f0fU, 0x3d0558143d09bc72U, 0xbd781529bcf5df80U,
  0x3ebffbdcbe9db28dU, 0x3dc8e149bef366deU, 0x3eaf6622bf139349U, 0x3e5c762bbd19486bU,
  0xbd7c86b03d8cca97U, 0xbf2b56c3bd6adf93U, 0x3e062f153cbe3b63U, 0x3e87e6693f018430U,
  0x3e99f3553ee56f83U, 0x3eb4f27fbe02597dU, 0xbec242e33e5c7d8dU, 0x3b789a7ebcd621b1U,
  0x3e969e373e556d6bU, 0xbe9286fe3ee21d76U, 0x3ea8d3c2bdbee7d3U, 0xbdc9969c3e33b530U,
  0x3eed81fb3e8a3ed4U, 0x3e0d3ba73e0064fbU, 0x3e15b3123e720d4dU, 0x3f0ee10dbe9994d9U,
  0xbe04715f3eb46d28U, 0xbc8e78c4bf249dabU, 0x3de6f3b23d6ceb8fU, 0xbc0f1b673dc1a1b8U,
  0x3d3c20ad3f22e35dU, 0xbe0835d7bcae3026U, 0x3d99caf2b892a5f0U, 0xbeb3cd0b3f249443U,
  0xbe52547a3ecdb941U, 0x3d403fa5be9aa5fcU, 0x3fccf6fdbdb274a0U, 0xbdf4254fbe24fd0cU,
  0x3dbd17eabe1cc6c2U, 0xbe1c1ad03db71a87U, 0x3d9978b53c92f575U, 0xbf3348d23ea86f60U,
  0x3eaa08883ea290ddU, 0x3ea2d412be627201U, 0xbf026cadbe9c919bU, 0x3e481f1d3db8e1b9U,
  0x3e17fd7bbea7bcd2U, 0xbf180e0dbe0fd093U, 0x3c922d64be225a69U, 0x3cfd2a2b3ebad1beU,
  0x3e4d6cec3ee4e5adU, 0x3cfabf2cbbaaec6fU, 0x3e8a18ca3e6a0344U, 0xbd49aa6b3e8fc199U,
  0xbd495bcb3e05cb52U, 0xbedbba473e2812caU, 0xbebd97123ee6d7b0U, 0xbeb5578f3e7c4d71U,
  0x3e953161bc1082a4U, 0xbdbf6948be8c8070U, 0x3e9c0f603e3bbaddU, 0x3eb768aebda6310bU,
  0xbd7ae5a3becce558U, 0x3ca8674bbdd08bd1U, 0x3d9340163e9f806eU, 0xbfb126c4bf7e1d1dU,
  0x3df65254bd703b5dU, 0xbf582b37be44d89eU, 0xbe600bf1be12a1e9U, 0x3da5e799bea2f39bU,
  0x3e30b4cf3e69e30aU, 0xbfdc12efbe804c1aU, 0x3f2ad91ebc1633bbU, 0xbd2597873f16392fU,
  0x3fa1f0cdbce31c0fU, 0x3eae1ad83e8eef40U, 0xbdbf78bfbe765414U, 0x3e06a6a83ea8f122U,
  0x3f04cb493edda1bbU, 0x3f77fdee3ed82d64U, 0xbf704f983e77720dU, 0xbd35b12ebe787377U,
  0xbf44c3793e8e6cabU, 0xbfeadd23bfae1d30U, 0xbdd47b7dbda7d79bU, 0xbc9237c9be29f787U,
  0xbea70b69be9acb8eU, 0x3d7e47bcbedd60d1U, 0xbf3166563db935a4U, 0x3e700403bf338e8dU,
  0x3e49cbe0bec7264eU, 0x3d819a19bd39182dU, 0xbc89fe183e955b10U, 0x3f105db3bebd20deU,
  0x3edd5c2bbe00add3U, 0x3c8d07743d987d25U, 0x3e811a5b3e9ba541U, 0x3dfa42b9bde48328U,
  0x3c82d6f6beb8517aU, 0xbfdd1772bf1906ddU, 0x3c6dbb613e965d90U, 0x3d61d26dbdf1d2a1U,
  0xbfa08248be807790U, 0x3e52e72abdbb6059U, 0xbd86068fbea08db9U, 0xbdb442573ea2b06fU,
  0xbe893ed0bef83c81U, 0xbecf394b3f1d3ee6U, 0x3d73ee333e861009U, 0x3f77df353f0f5790U,
  0xbf4a1bffbf839fc5U, 0x3e3893963e5305aeU, 0xbe7cda36bee1835bU, 0x3d8909443eb58532U,
  0xbe8b6306bd2a3ed8U, 0x3e04db93bec6bef3U, 0x3e512fb03d97295dU, 0xbda196a33f0d39e9U,
  0x3ecd795cbd4d4ab8U, 0xbebf4fea3e1787a3U, 0x3ec9af52be18805dU, 0x3bcdbbb73e63e9cfU,
  0xbfd2a8163e9f2bb5U, 0xbf1d51c53c4dbdb5U, 0xbfec9708bed10465U, 0xbe74eed23efc0817U,
  0x3e36f7b9be442178U, 0x3ee03944bec9c39cU, 0xbea9925a3dce548eU, 0xbf57a60c3e2ddabdU,
  0x3e5cb147bd7f13b6U, 0x3ed6d4abbda6b130U, 0x3e50e428bda9fb9aU, 0x3e6b4337b989c6beU,
  0x3d38a2053dc42a65U, 0xbf5cc52a3f106516U, 0x3f02a81ebecac2caU, 0x3e5e448e3c17e1c2U,
  0x3dfbbe933e738e72U, 0xbe0fdf793d86349dU, 0x3e1ca4ccbd864a0cU, 0xbd8f916fbd461d96U,
  0xbebe96453ed088f5U, 0x3e08df69bdbdd055U, 0xbe5f97c83ec4a185U, 0x3dc1439abee693b0U,
  0x3e912d77bf4f3bb3U, 0x3d64fdec3dbf50afU, 0xbe1b67303e994cf7U, 0xbcf31cb2bcf5b363U,
  0x3e8456393c0612e7U, 0xbe21465b3e4e83a4U, 0x3d8362873ed5c092U, 0xbea8cfcebd61e818U,
  0x3d4098173d90ce97U, 0xbcef7ce2bdccb53aU, 0xbdb5b530be11813aU, 0x3e6c19be3ccc0030U,
  0x3e6bdcca3e89ea02U, 0xbe4b6755be87f1c8U, 0x3e8585a23d5a9dc7U, 0x3e2cfa493ed4371bU,
  0xbea98de5bdb85a84U, 0xbe038b5e3e64235fU, 0xbf12d4fabdcabca2U, 0xbecbaf233e17b659U,
  0xba04f4e43e83159bU, 0x3e03abe4bf0c1186U, 0xbf1b16283e2a69c4U, 0x3f4431283bda4c79U,
  0xbf10a2eb3edbce84U, 0xbe4a8aaa3e9e6226U, 0xbf01012fbb7a9feeU, 0x3e578abebd265e7dU,
  0x3f90b497bb8e6cacU, 0x3df4387cbf855da5U, 0x3ec53658bed9747dU, 0xbdf82c25bca6299bU,
  0x3e9243743dc9b0dfU, 0xbc2a526a3c4a7d15U, 0xbdeb89863dd4f9d9U, 0x3d1b41acbda4f154U,
  0xbec020253dfb72b0U, 0xbe03a0e1bf8a6b7bU, 0x3edf87de3e78f3f9U, 0xbd5f6f773ece1517U,
  0xbfd0d04f3e2a693dU, 0x3edabde3bdcb0450U, 0x3cf100163ebf8bb5U, 0xbf6e29eabf9d2509U,
  0x3e1c85fbbe7a1f26U, 0x3daad7ad3e8f7982U, 0xbb9dc3e0bd7bb08eU, 0xbf2d0d33bec9f57dU,
  0x3d983d123e2dd2d0U, 0xbdfa3392be87eadaU, 0xbe4237cd3d8088dbU, 0x3e78383e3e393b99U,
  0x3e566360be4abc20U, 0xbe5b86923e1a5f82U, 0x3eba448c3d0a29edU, 0x3eee897ebcbc3275U,
  0x3d8f21eabf071e58U, 0x3ead755e3e938620U, 0xbe8bc6a83d935626U, 0xbe5e118a3ea7498fU,
  0xbeba42e73decbe7bU, 0xbe899096bdc1e613U, 0xbe3a78ecbe0d7394U, 0x3d27d40abe9a0fa6U,
  0x3cd7f87abe31026aU, 0xbc5c0cf13cb2dc23U, 0xbe760baabda299deU, 0xbe9fb4363e27242aU,
  0xbeca69a7bc8da7e2U, 0xbf22e744bcfc390eU, 0x3dc5cc0c3d25ebbcU, 0xbea53f79bcc3bc33U,
  0x3e637c75be276da0U, 0xbf75f4d83d35c6ddU, 0x3dbf3938be089447U, 0x3f4aaba83ef58d40U,
  0xbfda54da3e8f20f1U, 0x3dd1d7f6beacc8ebU, 0xbf9008dabda4a0ddU, 0x3d3eb87e3dadd2f8U,
  0xbee032bd3ebca7f9U, 0x3e8ade653d66527cU, 0x3ed4d0523e60d89fU, 0x3d5232d1be9b180fU,
  0xbe66b7ee3ea8f66aU, 0xbf31cb393a4da8c5U, 0xbe70b4a53e27925fU, 0xbeb9b86cbf9e4a12U,
  0x3e7790a03ebd9143U, 0x3e3bd7073e086a4fU, 0xbda3fff2be692eaaU, 0x3e85b3e43e8cd45aU,
  0x3e5194243d4d00e1U, 0xbf8a34433e8a9064U, 0xbb404e6abe8834d3U, 0x3d41dcb53e3c5a9dU,
  0x3e898d0dbd98fa2aU, 0xbfa09dcabd9f8efbU, 0x3c1324e5bd9d13f4U, 0x3e4d163bbe64ee4bU,
  0xbf6141233e2f57c7U, 0x3ce50b733deb9342U, 0x3e6eaf36bf7a5032U, 0x3efe4d073eb26a61U,
  0x3eada2443d1fc5f8U, 0x3e911737be9ce7b8U, 0x3e3bf8f23e01f247U, 0x3dc0501e3cd8baa3U,
  0xbed0ee253ec53c40U, 0x3d9690be3c9eb1c3U, 0xbe4f3fcc3e818ab1U, 0x3e2b255a3edf533dU,
  0xbeef3f523e962589U, 0xbeaa6cd7bd89ebefU, 0x3f00a6123cc00d39U, 0xbd91cc6ebf10cbebU,
  0x3d8426f7bd386b4bU, 0xbe4f9a17bc855b4cU, 0xbecff4483e9b0935U, 0xbe96d79c3de63a8aU,
  0x3d47a0e33f58c79cU, 0xbeb6e44e3db11069U, 0xbe22ad28beb2c875U, 0xbf4f58c3bdcc68c8U,
  0x3f4732b2bf87e64cU, 0xbdd5a1853e071856U, 0xbff2c5793d9cbb3fU, 0x3f21a6abbe6c234bU,
  0xc00c99f33d8212ccU, 0x3db4f446be6e984bU, 0xbeeba340bd9d6ecdU, 0x3eb15963bcec22fbU,
  0x3e8d75a13ed73569U, 0xbe156a25bf0adeebU, 0xbe2688e6be4482c2U, 0x3e7225aa3d66d6adU,
  0xbe9ca4c23d9f2c1aU, 0xbe9ccf003fb08f57U, 0xbe93bdefbe0d0198U, 0xbef04be4bf2d3cacU,
  0x3ea6ab393e22f564U, 0xbe18ff55be40cc5dU, 0x3e03fccd3f9eef13U, 0xbe7773063eb37ac5U,
  0x3cd72757bea3d144U, 0x3e1e8fbdbbeef00aU, 0x3f0601b0be5f5884U, 0x3e5bb684bb6fa593U,
  0xbe2daae73ea55b24U, 0xbe013d4b3f16239dU, 0x3f4830bcbd8a2131U, 0x3df474bbbe804d2cU,
  0xbf4f32b93d7f0164U, 0xbe51e98bbf970494U, 0x3e11d8183d7da647U, 0x3eed40be3ddd3451U,
  0xbedf37d8bead2759U, 0xbf565c6bbf9dc737U, 0x3e22c193bd92158fU, 0xbe68cb82bf049092U,
  0x3ea4fbc7bf140768U, 0x3eb56f97bdefa5ceU, 0x3f20645a3e173a4bU, 0x3fc45969bd87bb63U,
  0x3de1eaa2bf03e55aU, 0x3d0879fb3ea1898cU, 0x3de868c83c9733bcU, 0x3f4d7cca3ebd3415U,
  0x3e58d5cebed6d717U, 0x3e32a6d7bd56b434U, 0xbec8942c3e93e4cdU, 0x3ec92e743ea4776dU,
  0xbf1564893e93ed96U, 0x3ea40117be32b9a3U, 0x3f4754433d7c1f9fU, 0x3e9a11663ed1d10fU,
  0x3f79258d3d477229U, 0x3e6db609bf2cdd7cU, 0x3fe409393ed9fcf2U, 0x3e95040abd54b4c2U,
  0x3e0ae9ab3eca67bcU, 0x3da09429bf259034U, 0xbcad4bb6bda5805fU, 0xbe2886e8bd8a2e8cU,
  0xbdbbeb383d33b3d3U, 0xbe5d54323cac7fa0U, 0xbdad4f97be42175dU, 0xbd542b0b3da07288U,
  0x3d3c5e99bd1d0d1dU, 0x3d3ccec5bd9f339fU, 0x3d776b95bc8b26d0U, 0xbce16c39be12b1fbU,
  0xbd911c9bbdbe8bc9U, 0x3c926c8bbdc7026fU, 0xbd8e61153e1939beU, 0xb890ec05bd88bf06U,
  0x3e0e8af4be23e7b0U, 0xbddf56bdbdba1d49U, 0xbdb16d303db81ec4U, 0xbdf0ec643d538090U,
  0xbdf4f1883d9fb18dU, 0xbe575c26bdd28690U, 0x3c4d0186be03dbffU, 0xbe268811bdfc6f36U,
  0xbe473eb0be588d59U, 0xbe38740ebe256768U, 0xbe0a077f3cecf919U, 0xbd40e7e6bd71e4edU,
  0xbe2f395bbd0f5b66U, 0x3da9006abe44a31dU, 0x3dc3f1af3dafd07aU, 0xbe12af4dbe2462eeU,
  0xbde2010b3d06a578U, 0xbcc6718dbd1da988U, 0xbe37b702be1837e5U, 0xbd68eb303d7c0749U,
  0xbd5edac6be618688U, 0xbd9585ccbe07e392U, 0x3d63e84a3de96b24U, 0xbdd70429bd81644dU,
  0xbd6385f8bc604e7aU, 0xbe4f7a62bcfa6672U, 0xbdb27700bbc28064U, 0xbc881c333cd35fa6U,
  0xbe000a5bbdca7323U, 0xbb5e3de93d2c600aU, 0x3d158fcfbd5e6d3dU, 0x3ba6bfe5be5c8f14U,
  0x3e0cbd243da64c10U, 0xbe12ada2be109de6U, 0xbd572fd43cec2f17U, 0xbe41e32ebbd94d5bU,
  0xbf106e59be260094U, 0xbf40d229be8e970dU, 0x3d8fd046be5b16f2U, 0x3dc352edbe97760fU,
  0xbd31f5b93e7fae8dU, 0xbe93dae8bec53f7bU, 0x3ea70a42be23a930U, 0xbf6291b83eeb4040U,
  0xbf2ef7f1be113670U, 0x3ed7be5a3d0e2262U, 0xbe4fc8a1bf6e825dU, 0xbf9555b23da11a84U,
  0x3aa8e1e1be67a4b1U, 0x3e32f37abecae057U, 0xbf72e5863e4d98c5U, 0x3baa85f0beadb617U,
  0xbe543ca73eb13052U, 0xbe2607dabe8766e9U, 0x3ec4e08e3e257f5dU, 0x3e2aefde3e84cba9U,
  0x3ea28b503e683619U, 0xbebda8f3be4cf75eU, 0x3e40df6a3ebedd36U, 0xbb0998ddbd552373U,
  0xbf006fb8be8fc404U, 0x3e0a489fbee979e2U, 0x3e0025cdbe3f6f04U, 0x3d85ad5d3e0bb49fU,
  0xbc96e0c2bd8cc70fU, 0xbdb28b95be101c2dU, 0x3e5e79f4becb75f4U, 0x3ea82e8a3e10e95eU,
  0xbee0b4b4bf7ecbadU, 0x3e53cd3fbe479c12U, 0xbd865c8abb2bf9c8U, 0xbb143da03e06b973U,
  0x3ef19fa5bea18064U, 0xbf2d59e2bed3909cU, 0x3d4a5725bf50d1f5U, 0xbe27ccce3f1457eeU,
  0x3f34de7e3e5bf1acU, 0x3f05d7653ecd51abU, 0x3e2b7d96be4a0f39U, 0x3d39c5e3bc927514U,
  0xbfe910babd1cc51bU, 0xbdbdec8f3e08401dU, 0xbf87364dbe643a76U, 0xbf2e22f8bf4248edU,
  0x3f3eeddabeefb34aU, 0xbdb93e31be4b3f3bU, 0x3e8d40cc3d205930U, 0xbe50d6a73dc437c7U,
  0xbdb891b73dd143a4U, 0xbf1818af3e9f0219U, 0xbe8d24313e877f3dU, 0x3d14e6f7bf064bb0U,
  0x3eb8c2cdbd815739U, 0xbc10c0f53e03a2f3U, 0xbedfec1d3ecb3e8eU, 0x3e569442bda054f1U,
  0xbf0410313e6f2065U, 0x3f14df803eb405a4U, 0x3ee32f8cbe83eb2bU, 0x3e2fd20d3e2ec2f2U,
  0x3ecfbf863ebb48f5U, 0x3ef3dc36bebc9a0aU, 0x3db7252b3c9b170cU, 0x3dc532fdbf38a6b4U,
  0xbe8fd4e73e50c053U, 0x3d402dd4bd369be0U, 0xbdb30850bead41cfU, 0x3ed80fe23d8821bbU,
  0x3daf20e73d75f6e4U, 0xbea37c24bd72693dU, 0xbd9660423e74b612U, 0x3dda420fbf0df119U,
  0x3b3e26ea3d1c1fc3U, 0x3e54f337bdb4cbfeU, 0xbe363cb93bbb2cccU, 0x3e5cbc623e18eefeU,
  0xbe054d04bdb34781U, 0xbf056a7e3e8ca50cU, 0xbbd5081dbdeb766eU, 0xbea26e45beab4b64U,
  0xbe55824b3ecddd71U, 0xbf2620c2bc9414afU, 0xbe4f6e78bebca820U, 0xbed7f7ebbe26e2bfU,
  0x3e0ccd623e98eec1U, 0xbdbcde3ebe041c3dU, 0x3e128a55bd8e4d98U, 0x3ed64455beab9f21U,
  0x3d999fc8bc7f35a7U, 0xbf86e5013ec8c8d3U, 0x3f4d6d04bdb53274U, 0xbe9868753dfb813cU,
  0x3f0826e53cfad359U, 0x3e6f40cd3f1834e1U, 0xbec43c5fbe9fb266U, 0xbe5d37ff3ddfc5e1U,
  0xbea458e43d7f653fU, 0xbed8ef923e2dfd4fU, 0x3d2cfb583e272894U, 0xbf0acb433e9cba1dU,
  0x3f0fa566bd6b5966U, 0xbe3f6113bc1ddd37U, 0xbe1fe177bda9eab7U, 0x3e8190513bfbcbd1U,
  0x3f3215193e8695c6U, 0xbdccaf823c0c0799U, 0x3ce5145c3e2cbfdeU, 0x3ef222cabe830039U,
  0x3de1f4453de0e186U, 0xbfbd01a73ece6f84U, 0x3e1f3b5f3e7f43f8U, 0xbebc96ce3ef8bd59U,
  0xbdc592e73e08dce7U, 0x3e1e5dc0be40a5c8U, 0xbe448fffbf00ca7fU, 0xbd85d9703e66254aU,
  0xbc01140cbf0f9d11U, 0x3e36e5303db89f0aU, 0x3e1c396fbe08ef77U, 0xbefde24cbcacd199U,
  0x3e4b673f3e6d1fe8U, 0x3e27dc2dbec17ac5U, 0xbe1cda39bdf3f4ecU, 0xbe8545d1be3bdf94U,
  0x3ed5173e3efa49eeU, 0xbee758663e87e592U, 0xbef82338bd48e562U, 0xbeb1708bbf273ce3U,
  0xbd6746673e2e799bU, 0x3ebe1d063cc3c6d6U, 0x3df1c4abbdeb1592U, 0x3c1deaf93e0fd619U,
  0x3df604b43e48999eU, 0x3c1c97ee3e1a73a0U, 0x3deb259a3f6d7e4eU, 0xbf8c635cbea977c9U,
  0x3d87495f3ec79162U, 0xbf861da4bed64ef9U, 0xbda8b8bebf0b78ddU, 0xc0a6f26aba8fdcb4U,
  0xbdbf7f5c3e134530U, 0xbe90ddbe3e1fe426U, 0x3e9413a73ec26267U, 0xbddeb8dc3e58421cU,
  0xbe034f3a3ec2923bU, 0xbeb37c813e2a0df5U, 0xbcd5a4d2bc3aa9a3U, 0x3d656fd2bdcccd53U,
  0xbd7f3946bcda8ee0U, 0x3dd97cc23e21c756U, 0xbe28a7e93d21fc50U, 0x3ca4f554be0b6555U,
  0x3daeb2cbbe443e36U, 0xbd54bc03bd33f154U, 0x3e00362ebe3d802aU, 0xbe47be62bb4a65e3U,
  0xbd7522aa3abcde57U, 0xbe17a396be4cc3a9U, 0xbe0d3bc6bd4bc9e5U, 0x3d67e001bde0ef91U,
  0x3e0b84e1bdea30e5U, 0x3d09af60bdbe087bU, 0xbe32c9d1be2cc3ffU, 0xbddeb7acbd19397eU,
  0x3d99af10be190c4eU, 0x3d8623b8bde88ef1U, 0xbd8656eebe430fc7U, 0xbe2f719dbd126890U,
  0xbe3038f8bd862050U, 0xbe4804adbd6c6ae4U, 0xbe0df838bca8500dU, 0x3cd910383bc13d57U,
  0x3d82d218be0cf993U, 0xbe1b96e7be119f6cU, 0x3e0a91c33df35a8fU, 0x3d8fb39abc52ad68U,
  0xbb2bdbf6be2f7df9U, 0xbe1ff583bdb2f2eaU, 0xbe09b65abe0dd928U, 0xbd4715f5be001beaU,
  0x3d0dfc3ebd56430cU, 0x3d04bbd7bd7e3a13U, 0xbd3a1de8bdd3491aU, 0x3deff89ebddcb654U,
  0xbdaa24eb3dd13cedU, 0x3d1127f7bddb113dU, 0xbe066f383d0e15a1U, 0x3d6bbcedbcba927aU,
  0x3d8e926dbc4bfc38U, 0x3dd153323d863fc0U, 0x3e02f495bd575eacU, 0xbe2da5f83e05d5a4U,
  0x3da047f23da5f221U, 0x3c26df81bdcd876bU, 0xbdc288273e1aacacU, 0x3d68c5a23e1135f2U,
  0xbf2c3d81bc36f5b4U, 0xbd4ad0613d1d86dbU, 0xbe26faa43e2a88eaU, 0x3eb829ebbd852b83U,
  0x3e4315ebbbf51692U, 0x3e219dbebe7db312U, 0xbd47b39fbe0ac1d0U, 0xbed5803b3d938e4fU,
  0xbf2112a9bea9e7f7U, 0xbe11fc8fbe16ec50U, 0x3dc49591bd10cab0U, 0xbe193f9f3eee1cebU,
  0x3dfa2424beadd332U, 0x3e798c88be6e4dbeU, 0xbf9d3e313b441006U, 0xbd5880a53e68cd0dU,
  0xbd5fdca73e9e68eeU, 0x3d4287f13eb23940U, 0xbd578badbe88c703U, 0xbd98866fbe070cc1U,
  0xbca55d053ebfa148U, 0xbd95ba553e140368U, 0xbdc05c12bde5ce9dU, 0xbea338c23ea7075dU,
  0xbdbdc0d13eb9d7fdU, 0xbeb741f6bd608fbbU, 0x3e8ebeebbe9e6fedU, 0xbe459251be8adc71U,
  0x3e432465bea9bebaU, 0x3d63556a3e279bd7U, 0xbe157abb3e87f2efU, 0x3e02b88d3d52bf6eU,
  0xbded3a17bda3cf4fU, 0x3d6a23f63df25a95U, 0xbe667633bdd60288U, 0xbeaa8e173e965cc5U,
  0xbe56a0f03e098f94U, 0xbdeb7e183cb2be72U, 0x3e343e24beaeea43U, 0x3ea7c0333ee37888U,
  0xbf1dbb5f3c4e5405U, 0xbe464ea8becc8d9fU, 0xbf299c56bdc9c9a9U, 0xbcdc1f6e3ee80518U,
  0xbf8d0256bd9b06e3U, 0x3dda7d2cbf588c5aU, 0xbe0bb39f3e73543aU, 0xbc699e4fbddbd0fcU,
  0x3ec6c227bed1bca8U, 0xbc653db73e97a8f1U, 0x3cf11b3abebf612cU, 0xbec25986beede13dU,
  0x3e482b183e83750fU, 0x3c47f557bec1c460U, 0x3df51f8cbd207d9aU, 0x3eb89ff6bf24a773U,
  0x3e3da0323ca533d7U, 0xbe2d58ae3d940d16U, 0xbe3688cabf6fcd6bU, 0x3e03efa5be006decU,
  0x3ecefc36bf2770ccU, 0xbc8835b6be5c3acdU, 0xbcf5433dbe800806U, 0x3eba3f56be98957fU,
  0xbf1e20503dd567caU, 0xbdf79256be0c3514U, 0xbe607b60bbfbbdc0U, 0x3d68d9e5bf841c70U,
  0xbe36e89fbcd366ceU, 0x3e8800723d653e2fU, 0x3dc009823ec1fcc4U, 0x3e2f9cc8bf0ae2d5U,
  0x3ec4c4d9be0473a2U, 0x3e3181cf3e8947ffU, 0x3dff3fd13cd5b9b3U, 0x3ee455cdbe946da4U,
  0x3d84e021be2f5d9fU, 0xbe26a7fabe0e99edU, 0xbf25f4dabe2b0e79U, 0x3c7746db3e6fb682U,
  0x3dc4a6febdc89da7U, 0xbef5bf373d97d65fU, 0x3e56d228be945963U, 0xbebea78fbe8323f0U,
  0xbe18b2f5bea3e5eaU, 0xbf1f9f10bbef9b4cU, 0xbe3bc727be4e5ab2U, 0x3e2e42a5bd053640U,
  0x3e2d2612bf815236U, 0x3e61dc86be98b2beU, 0x3eb27259be532126U, 0x3e1d0234bede839dU,
  0xbe10f6333ec8820bU, 0xbda15d4a3dd36ea4U, 0xbd99740cbee923d6U, 0x3db38785be936406U,
  0x3de811563d6d60f5U, 0xbe6aa799be8b4ce3U, 0x3dfd8056bf1dcd26U, 0x3d4ebb5f3e300e07U,
  0xbf26b1d1bd7cd14fU, 0xbcca35613e55ac54U, 0xbefa50a23e505a82U, 0x3f1bf5f8bc2d9f7dU,
  0xbed137b83de5a412U, 0x3e03f9e2be9cecddU, 0xbe8cd870be48e038U, 0x3eea3412bdf92faaU,
  0xbd8e0c08bf8aed1eU, 0xbe1352eebe5f69f3U, 0xbe9370943ecb39a8U, 0xbea2fd0dbf84f77eU,
  0x3e1901913e45f38fU, 0x3e840914bf0c38f6U, 0xbf86b152beefafb6U, 0x3ea9b5243e3c7eccU,
  0x3e0dfb77be7060c7U, 0xbe6d150f3ec485e4U, 0x3e26be623ce73de1U, 0x3ee6de6bbc891b93U,
  0xbe92bfdd3e5805b5U, 0xbf18f1433e9600edU, 0x3e7d7a59beb76142U, 0xbe92d87ebb9f40eeU,
  0xbe0d6237bed434b1U, 0xbe8607dcbe6eb93cU, 0x3dcc1e9bbf357adfU, 0xbda7ea4c3ec1c4a0U,
  0xbd98486bbe5dfb97U, 0x3e63d4443ee0a0ffU, 0x3e96c5b2bee5f7d6U, 0xbee48e523e14f2f3U,
  0x3e1084a03d07860bU, 0xbe8b52b53e8f326cU, 0x3e803651becdb9bdU, 0x3dbd10d43ee4f4edU,
  0x3d48e6e5bde70099U, 0xbe3082f13d43d3e1U, 0x3d5ac7b1bf712e5eU, 0xbd21dabcbe189fc6U,
  0xbbb20cefbe717fc4U, 0x3c310a2c3ed12e68U, 0x3cda3a72bd7f53dcU, 0x3de003383dd0ded5U,
  0xbf9dc4d5bf94230aU, 0x3e57e507c0157320U, 0xbef5bf38be47a16cU, 0x3f0e64b8bf4fe05dU,
  0x3e96ddc7bf0d4b7dU, 0x3e36bb3cbc63de7eU, 0xbeb3481a3e7a29c1U, 0xbfdc7fab3bb8cffdU,
  0xbe808b10bdb4ce13U, 0xbdb5b3063cdde4d6U, 0xbea136083ef46cbeU, 0x3cb730483fa11b4cU,
  0x3ea486bb3d4b7c3aU, 0xbed56ef13df3d576U, 0x3fa33a993e0c46b3U, 0x3e85fc0c3ced42ddU,
  0xbf7433ba3fc3fb2dU, 0xbf169dbf3e9a7e68U, 0x3ca69378be6b1840U, 0xbd9915ae3d52585cU,
  0xbb20b05ebdff57e9U, 0x3edf8b293c2ec245U, 0xbea854253eabaa33U, 0x3ec3dda8bd7c0c73U,
  0x3e0abf7cbf1e9d12U, 0x3db560d93dbdc28fU, 0xbe668bf73e84ccf3U, 0x3d017206bb8fed6aU,
  0x3d68af013e946d04U, 0xbe903d82be549fcbU, 0xbe4944f03e0b4c5eU, 0xbe398b38bf46ddf6U,
  0xbe20283d3d400925U, 0xbdc530b3be89ad85U, 0xbd8480cdbf4320c2U, 0xbe36f6e93ed8b4f9U,
  0x3ea033cebe092c67U, 0x3e8133b23ef959faU, 0xbf23c9a23d268d3aU, 0x3d53118f3dce96e0U,
  0xbec68ead3e552582U, 0xbc8a764dbde3988dU, 0xbe0c35f0bf4bfa8dU, 0x3eb17217be654674U,
  0x3e2637913f168b15U, 0x3e17741c3e6894f0U, 0xbf20ec6e3ea64fadU, 0x3eb033a3be1d9301U,
  0xbe8d87673e02bfd4U, 0xbd4f14563ed7c870U, 0x3ec007c23e8e243eU, 0xbe5f7cc9be16ca28U,
  0x3fc0f01dbd8f5e35U, 0x3ede9c103d906094U, 0x3e82525abe3a00aaU, 0xbf0c36fe3df54727U,
  0x3e89b1213e81e2d0U, 0xbea65f2bbf072e9dU, 0xbe8ca3f2bbd853dfU, 0x3c9fa1fabe3f5bf5U,
  0xbe0c054ebce54bbcU, 0x3ecaf40dbf33f21cU, 0xbda6a8bebe3216e8U, 0x3e9a1d2f3e88183eU,
  0xbf0718eabe28f223U, 0xbe88a15a3d9fdbe1U, 0x3eb0d5bd3ef9fbacU, 0xbe9998ac3e010cb9U,
  0xbf51b0b03d3ac391U, 0x3cda0bfb3ec7c016U, 0x3c58dce33bbc574aU, 0xbf0747a8bb93fcfbU,
  0xbdbbf6db3e3ed254U, 0xbe8b32fa3db9095eU, 0xbfa1ded63d106d93U, 0xbe2f7f823e802701U,
  0xbd1010ef3e37ba8fU, 0xbd9d3376bda31599U, 0xbe4471db3dfac0aeU, 0x3e3f0fcbbee1a04fU,
  0x3d3a3a4abdc73321U, 0xbe51b9eb3d99680fU, 0x3efcda813e7cc300U, 0xbe58786dbd881da4U,
  0x3f10f2da3e1bbd66U, 0x3f02c41ebd099546U, 0x3e4b841d3e9e02deU, 0xbe112c18bcf7df2aU,
  0xbc54049d3ea80b5bU, 0x3e2dabcbbec63f4dU, 0x3e14c2bbbe035176U, 0x3e0d05bcbdfd6d59U,
  0x3efbd802be4ea727U, 0x3eff62b7bdf2bfa3U, 0xbed9741d3eefb072U, 0xbeeab3843d625e42U,
  0xbebca8cc3e223925U, 0xbee368edbe90e418U, 0xbf74f6313e98691cU, 0xbf70c826bd8d48c4U,
  0xbf2a20d73e6d0a58U, 0x3d913bc23e50343aU, 0xbff932873d8db5a9U, 0x3dcf491fbe6ff771U,
  0xbe8fdd3f3eea968aU, 0xbd9e4d8dbdb30e53U, 0x3ef53540be4f7dc2U, 0x3ef8c7c23eff7d79U,
  0x3d1a33dcbeaea09fU, 0xbcb1c999be70d6dfU, 0x3d117c06beb67bdfU, 0xbed57e38be3d3a50U,
  0xbdfab217bf94ee71U, 0x3ed620123b9fcf7aU, 0x3feaa293bfca3996U, 0xbe58b692bdc67448U,
  0x3f29cbf2beb4b694U, 0xbed5eacb3f3ef3f7U, 0x3d22477d3eb96dcdU, 0xbf0cf4f13f812db5U,
  0xbdc9d2453e1d69f0U, 0xbee6e65f3e6be6e8U, 0x3dde54e6beb090eaU, 0xbe800cadbdb7c3b6U,
  0xbed4eca03e0a07b7U, 0xc00c52613e95f73cU, 0x3e2e3507bf52bc96U, 0xbe7d76acbe8e89e0U,
  0xbeeaa76c3e0a7be5U, 0xbf9391ddbc2d2bfaU, 0x3e48c4b2beb4e437U, 0x3d8793fd3e8c8811U,
  0xbec78b153ebba4cdU, 0xbe513c643d361b16U, 0xbe3504bc3d4e8047U, 0xbf1ddda9bd40a02cU,
  0xbd3713143ed7b8ebU, 0xbdda5f6e3e290219U, 0xbc2d473b3edfdd55U, 0xbe532234bea57fe0U,
  0xbf29c6e6bedf494dU, 0xbe9ad27a3e7381b5U, 0xbf0480e33d450312U, 0xbe9b67a8bf1cf32bU,
  0xbd70b3743f63e85eU, 0xbe3accfcbefd5b0aU, 0x3f1d4ccfbe0d364bU, 0xbf1db16ebd584533U,
  0x3e4ef6a3bfdfd57eU, 0x3e0df10fbd40afd7U, 0x3f861f50beedb171U, 0x3df358223e8841cdU,
  0xbe83bed0be1c8062U, 0x3e705a223f4811bfU, 0xbd9799813e67cd35U, 0xbd84f76abd56251fU,
  0x3e078aa03e86d880U, 0x3f38e1023dfee16fU, 0xbf03cc5d3e919745U, 0x3d91d242beefaa84U,
  0xbeb158553e408bfeU, 0xbdb18bc03ee12103U, 0xbed5d70cbb92dbf5U, 0xbdc4357c3e838c43U,
  0x3fd8a806be02b113U, 0x3e1587fe3dc7c488U, 0xbd1b29dcbd9c1029U, 0xbeea29e2bec1875eU,
  0xbe48e890bd94e971U, 0x3e3335063ead98ecU, 0x3e152b57be4675e9U, 0x3e9ece33bd0d42ebU,
  0x3e792789bed773b9U, 0xbdfd5fa93d325c53U, 0xbf3845663dd509bcU, 0x3eafacd13e55cebaU,
  0x3e63055fbe41d7b3U, 0xbec59e30bea2f8e1U, 0x3e742167be964214U, 0x3dec0e34bed27f25U,
  0xbd9402703daaf05eU, 0x3d36239d3ccd3d5cU, 0xbd429a763d5e7b94U, 0xbead7a503c4ce79fU,
  0x3f352cdb3ea7e73dU, 0x3d75b1923e062d94U, 0xbe851a12bdf27d1bU, 0x3f2119c83e370040U,
  0x3e3b83743e6ad32bU, 0x3ee2d208bf1f7400U, 0x3efcb196bf036ec7U, 0xbd3bde17bde684abU,
  0xbcddcb6d3d4b2a1aU, 0x3f69bf8bbe79a1deU, 0x3e01f05c3efb7de0U, 0x3e6b08e8bce12abeU,
  0x3f5e2034bf1c2ad3U, 0xbe35033a3e4fc19cU, 0x3f6f01a5bf46e7ecU, 0xbead764abc469bfbU,
  0x3eb3389c3e292d1aU, 0xbf021cedbe350b72U, 0x3fd728babe2945fcU, 0xbe894f2a3f30cb3cU,
  0xbf0f59cd3eb2048aU, 0x3ddd37103e28e77aU, 0xbe4ade953d9fb305U, 0xbec7bd02be807580U,
  0x3e9d372c3e030eaeU, 0x3ee52a613f104769U, 0x3e886ed43d720034U, 0x3cd050e6bf9e133fU,
  0x3c6b7916bc28b1f0U, 0xbf2390233d4fe18bU, 0xc00989513db6638bU, 0xbde172fbbd269952U,
  0x3be5296e3efd69c6U, 0x3e931b52bee30af3U, 0xbd8cae0fbc6e1064U, 0xbc74bb6bbf07eaecU,
  0x3f4ab5273ed3546bU, 0xbda71678be19e21bU, 0xbe1ed83cbcd75893U, 0xbe21bb64bef65826U,
  0x3ef47354be1d84b4U, 0xbd234df6be97388cU, 0x3e4224bd3ec3add5U, 0x3e0f6fd23ed037c3U,
  0xbb97a0413e40445cU, 0xbc6bdbda3dda5f43U, 0xbedccc9c3b91959eU, 0xbe9f2467bf693763U,
  0x3ec46d8fbdbdb4d5U, 0xbe597855bd69d409U, 0x3bee0d8e3e6d7742U, 0x3f0292d93c7f41faU,
  0x3e0fe0b0be582f15U, 0x3ee327be3e555f41U, 0xbe31a033befeeabeU, 0x3d85be213e9d1dc7U,
  0xbeab6b2d3ea81b79U, 0xbeb030c5bd82731eU, 0x3ead0958bf0ebf50U, 0xbea79f54be513adcU,
  0xbd51ebe03e8d5e77U, 0x3d5292563e9a16c0U, 0xbf0cec23bd3aef51U, 0xbe32e747bf806c5bU,
  0x3efa125abe5a1b40U, 0x3db95494bc5e41e5U, 0x3d9b4d403b7a45ebU, 0xbce55182bcac7025U,
  0xbef791e2be1c6bb7U, 0xbe894b6fbd0034a6U, 0x3e8ce1e5be8f5746U, 0x3d255555bd9e7c46U,
  0xbdb3dbfbbc63368eU, 0xbe33eb0abe6213faU, 0x3cb891393da54fe5U, 0x3d4ee567be0e964fU,
  0xbe468465bc958527U, 0xbe1b1bb6bdeebf10U, 0x3d1b8428bd8affc7U, 0x3c87bf8dbd1672e8U,
  0x3de78650bbfc9a6fU, 0x3cb3e54c3e0351e9U, 0xbd8f9844be006fa9U, 0x3dff636d3c3e481eU,
  0xbe447ede3dd0cb7eU, 0xbe23fda9bda848aeU, 0xbd9a89d2be033720U, 0x3d6d55aebca969acU,
  0xbe1785aabe03f361U, 0xbd959f293dc7b1b1U, 0x3d299a34bda96c58U, 0xbd39d0503d2c6322U,
  0xbd7a695f3dba1d63U, 0xbe123d1e3cb23600U, 0xbe3c3381be34c828U, 0xbe3c4b9b3d6e81a8U,
  0x3d32f4d3bde645f1U, 0x3d3167fcbcb4ff4dU, 0xbe0a9f9ebdcdf981U, 0x3c651f093d9f6389U,
  0xbd590b5d3c18acd9U, 0x3d7d3167bb2646c2U, 0x3e04418cbcb3d48fU, 0xbdea71a43db1a3ceU,
  0x3da011babd0d3cf7U, 0x3bdd9c153d543b49U, 0xbdc6e9ecbcfdfb67U, 0xbccff8d3be27370eU,
  0xbd0064dcbe2edc68U, 0xbe0bf842be2b8283U, 0x3d2abc3fbe1b640aU, 0x3cea12483dbaf575U,
  0x3d6e7a52be285e67U, 0xbcd9220cbe365472U, 0xbdb7c9103d844397U, 0xbb921a073e19dc72U,
  0x3ddd52edbdbb084eU, 0xbdb96bb13d7e1caeU, 0x3d08dc073d5381b7U, 0xbd08e8b43d8b10b3U,
  0xbd8043283e152792U, 0xbbabb2093d8d7590U, 0xbe1723813da6706dU, 0xbd8603d9bdf16f53U,
  0xbe86db543ed18eddU, 0xbfae56393edd23d2U, 0xbe800e093ea212eaU, 0xbec48e343ea79c9bU,
  0x3cce8b963e00f35aU, 0xbe4dd3febc364600U, 0xbf1d8d2b3dc16664U, 0x3d25a14d3ef6eb24U,
  0xbdc2f5d43eebcef4U, 0xbf3cc455beee983cU, 0x3e1eb3053d07b885U, 0xb885a0203d42b3d7U,
  0x3e6485323e7b5973U, 0xbfd84fa6bbb682a7U, 0x3ce0cd05be96a640U, 0x3e9f9c783ef9e31dU,
  0xbe9db5533eb7a432U, 0x3dc60dcdbe844331U, 0x3d2a4ab5bfd5c9abU, 0x3e9fc7353f85f661U,
  0x3d861c1e3c8f15f8U, 0xbf03ab28be005f0fU, 0x3df9e07f3c920773U, 0xbe28f2573c933993U,
  0xbde7a2343ea2f547U, 0xbe3ce8b9bd767133U, 0xbd6b1e463e607742U, 0xbdd55a01bdc33ed6U,
  0xbdee555c3e12a0b9U, 0xbec68b61bfb24d21U, 0x3e9642353eb23785U, 0x3e0c698cbe1db4e5U,
  0x3e5e21c13d3e1ad8U, 0x3c99e47dbd6de632U, 0xbe95a0a83ee0ae50U, 0xbf4755a83c45eccaU,
  0x3eb40fe93f0f48a5U, 0xbe12bd4c3ee4afc3U, 0xbe0daee6bdd5a67eU, 0xbe87ef5c3dae4298U,
  0x3e8c729cbf33d407U, 0xbee6a8673ecec2b2U, 0xbf54eca1bdd6ba88U, 0x3dd84e9cbea30b64U,
  0xbf417819bc9c03a8U, 0x3d674bbe3f0e59b4U, 0xbfc77ad8bda43df3U, 0xbee0f7713d0bd44eU,
  0xbec193413eb664ceU, 0x3f38e1813ea7e1b6U, 0x3e50a4e43df68b37U, 0x3e8aa733bda279b1U,
  0xbce9bd373e78b434U, 0x3e51abc4beacf592U, 0x3e234f2f3e95603eU, 0xbd6d97583dec0e1dU,
  0xbfe660a73da0c398U, 0x3ea0678b3e37022dU, 0xbfeb10f4be0cdba7U, 0xbe49ceb83d9ab9ddU,
  0x3d5c6a1cbe9d5172U, 0x3dcec6e5bffbfb32U, 0xbf96ae09be746a36U, 0x3e92a11a3eb58374U,
  0x3e0e34213e036266U, 0x3bce483d3ee0b45eU, 0x3eeef691bf026c76U, 0xbde358543d3ea384U,
  0x3e082f5e3e9775a0U, 0xbd852a68bf0b3108U, 0x3e3b2736bd49f907U, 0xbd9225363e86f937U,
  0xbc2387383dd8678aU, 0x3e183635be78d26cU, 0x3d3aeb7fbe181c82U, 0xbea75fc0be63dacdU,
  0xbe445142bf201570U, 0xbe798bffbd9517abU, 0xbda2857fbf1597efU, 0xbb89c13f3e534ebeU,
  0xbe8148fcbe89c492U, 0xbcbfe55c3f069f91U, 0x3cd8ee673ea28ddeU, 0x3e5fef0c3d7f2751U,
  0xbecd85fc3e6ab03dU, 0xbf1a9665bf68288cU, 0x3e09a769bf90014dU, 0x3ee9d96b3ee75ae1U,
  0x3def298d3e274f77U, 0xbe76bfc83dd85081U, 0x3da0f73e3e6dead6U, 0xbf211c303e772e93U,
  0xbeff26263e5bb02cU, 0xbd3d4a02be377786U, 0xbf89181abdd2a820U, 0x3e714ef2bf35a957U,
  0x3eff48d2bdf22a14U, 0xbf020449bd1479f7U, 0xbc971915be237bacU, 0xbd199ffa3deda802U,
  0xbe03e27bbe41414eU, 0xbd24c4833d4fe1b3U, 0xbcd23cc8bde601caU, 0x3e0a7dfdbda95659U,
  0xbca7a678be16717bU, 0xbda7ede8bd2c9769U, 0x3dd420d0bda3a176U, 0x3cefc6cc3dc5e389U,
  0x3e17f50cbc324ba5U, 0xbe1255f8be343105U, 0xba5510d8bdd300c4U, 0x3d6ac0f6bd21c520U,
  0x3d8b243fbdedcd28U, 0xbc65589cbbda9ae1U, 0xbd820883bd89b3d6U, 0xbd0a8fb63d957064U,
  0x3dbfa84d3e18ec62U, 0xbe1929d13dffb148U, 0xbcccb390bdd5b0e8U, 0xbdc742633d99e86fU,
  0xbd7e7008be042fcbU, 0x3ce0a21cbdff22a5U, 0xbdf90f08bd866882U, 0xbd0a57ccbd01c1a0U,
  0x3dc1ea51bddba384U, 0xbdf7aee6bd84dccdU, 0xbd46a24ebe0670a1U, 0xbe163f9cbda20e6cU,
  0x3e14f3f6bc833be4U, 0xbe32ec60bdc1fccaU, 0xbdfa0fb1be30ae37U, 0x3e06f3eebdaaaa80U,
  0xbe1c945d3dc64258U, 0x3cba07c83d84a1c1U, 0xbcf60014be05f7a8U, 0x3db1e140bcd21f1eU,
  0xbe2f71a03e153aa5U, 0x3dbe70783dac6f4fU, 0x3d8b231b3df8d6bcU, 0x3da650983b93f7e8U,
  0x3d75d18fbe35b242U, 0xbe10cfbcbe3f3c90U, 0x3e0a8725be3c7acfU, 0xbd8d2c85be10c995U,
  0x3cd3abee3d8c7948U, 0x3de80254bd244430U, 0xbe21ec0abe20c8cbU, 0xbd67dae03e119f3eU,
  0x3cf4c53cbea7ccedU, 0xbe449be9be77ef62U, 0x3eafd4b53ec6077dU, 0xbcb1064fbd1d7c62U,
  0x3e41247b3c969e19U, 0x3d718cfa3f1da12eU, 0x3e959ab33e63838bU, 0x3cf7c286be5d6d68U,
  0x3e8552fbbfa59460U, 0x3eb9a4123b468b1bU, 0x3e890983be9be978U, 0xbf555702be55c7d1U,
  0x3ea7a25abdaefd46U, 0xbec6cfb9bd6f9a9cU, 0x3edaa7b0bcb04558U, 0xbe28b2e73b100f67U,
  0x3dca31cdbe79f8a9U, 0x3c4bc71fbcfb9c7fU, 0xbe5129b63ccff402U, 0x3e00ef043e15ed70U,
  0x3ef3c92a3d8320aeU, 0x3e6160ce3d76aedfU, 0x3e44cc373c98af01U, 0xbc563dea3d7c654bU,
  0x3e7826893d80d3deU, 0x3e86c1473cdba659U, 0xbe029b023dd77f06U, 0xbe1600c0bec9dbbaU,
  0xbf3ef3f5bdffb46eU, 0xbcc50f663e9474cfU, 0x3e0287c03d605211U, 0xbe506d32bce3317dU,
  0x3f04dd8abe0084aaU, 0xbe61634cbdec2f1aU, 0xbd084d83bf820be7U, 0xbda0a684bdf81c74U,
  0xbeabe7bebe31b297U, 0xbdca91073d5efb70U, 0x3e1ee7c33cef42a9U, 0xbf3d495cbe720a43U,
  0x3e2b1fb4bd97b237U, 0xbe6ba431be654afcU, 0xbe1a443b3eb5fae9U, 0xbe0606163d75fe9cU,
  0x3e0a9062be1a5fc2U, 0x3db86473bed1d2dbU, 0x3e50aa09bea76f27U, 0xbd6eddf83d91ad99U,
  0x3e14a37ebedd9418U, 0xbe88b4203e6a90a4U, 0x3eff33f03cdb1dc7U, 0xbd307f94bf3e7995U,
  0xbe6d24133c360663U, 0xbecb5e8bbee5aecdU, 0xbecacf3cbd0ba699U, 0xbe83643cbf38a1f1U,
  0xbe8d4a50be9b2d6eU, 0x3eb06f34be3535d0U, 0xbfe2a5a23f20c38cU, 0x3e06afc9bcba4d87U,
  0xbe6d5ebf3f3540f6U, 0x3da31e693eaa5035U, 0x3e2647c0bf2487bfU, 0x3dfae830be9e0551U,
  0x3eece2633e12c878U, 0x3ef981a9bf5fbd98U, 0xbeba9aac3e35adc8U, 0x3e2304c9bdb76b3fU,
  0xbf491a9a3e643d21U, 0xbf2fbd503dd2c317U, 0x3ea8ab913e01d944U, 0x3e63b3653e37cef2U,
  0xbe9ef937be421552U, 0xbee79d623d459c28U, 0xbe89c8853f11c3edU, 0xbd4bebb83e4850baU,
  0x3d6c94973bc8f057U, 0x3df487c13d2e6985U, 0x3ea1a1803dab53b7U, 0xbda2d98bbe1fce3cU,
  0xbee67edf3eb3e7b2U, 0xbf2dcadb3d7f038bU, 0xbe066ad03c8199b0U, 0x3e4acba7bed231a6U,
  0x3ec5faa83efecc73U, 0xbf01e0933f009812U, 0xbf0a54f13eb08fd2U, 0x3e63e302bde4deefU,
  0xbd3120b3be196e98U, 0x3e9eb30dbe2b70dfU, 0x3e4087dfbe032c7fU, 0x3e8a4e17bea40094U,
  0x3df65d9a3e4abb31U, 0x3e468b9a3e70353dU, 0x3f83e9c13edf0c78U, 0xbeddd583be6ac427U,
  0xbf3dff923ed549a1U, 0x3f139412bf393d47U, 0x3e2ed73ebef63fc5U, 0x3d06e0cfbe8a86fdU,
  0xbe40a5243e6d7580U, 0xbf052981be63c18fU, 0x3d5ba1a3be1c7618U, 0xbd8162923eb63288U,
  0x3f23f3e9be8f451dU, 0xbd3c83b43f6b1bccU, 0x3db369babeb30353U, 0x3dc72392be135922U,
  0x3fa88282bf8d3f77U, 0xbbbaee55be7a9e63U, 0x3ee5641bbc825e22U, 0x3f21500c3f4d80bdU,
  0xbe0466d73f038f87U, 0xbe39757b3ed25e55U, 0xbe8a903c3e7c3a7aU, 0xbe8f21e03e84bd8aU,
  0x3e136a283dcc5e90U, 0xbe9f95803ed196deU, 0x3ecd056dbf3d97a9U, 0x3d4bb04fbe5891eaU,
  0xbedc689d3e56347dU, 0xbf42eb09be7c1748U, 0x3b955bc93e1528feU, 0xbf5a99f33d9edc9dU,
  0xbd71074b3e6ccc51U, 0x3e5d7d1c3d4d7e80U, 0xbe3287a6be2d2440U, 0xbf8522673d159f06U,
  0x3e88ed383ea67be0U, 0xbf2e4c5fbe83bcb9U, 0x3f12a5c53c826615U, 0x3f8135f3be7916ecU,
  0xbdd64d1c3e848e6aU, 0x3e2485e13e8d9864U, 0xbe86920fbf308b2fU, 0x3edbcd50bdb30d08U,
  0x3ec203dabe6f51dbU, 0xbf23caf5bedd12dbU, 0x3df8fdcd3e9301a5U, 0xbf313a09bd5a4f50U,
  0xbf17e56c3ed50847U, 0x3f23204e3e123550U, 0xbcb4fe423d5997ebU, 0xbf60e6dcbb717f54U,
  0x3f4cd4d8bf2aae7cU, 0xbdaf9f963f118237U, 0x3f0b655ebe483de6U, 0xbe8d13d6bf1d6a36U,
  0xbe1b14223e840187U, 0x3e05f330bbeae7f2U, 0x3e299f8d3ea56febU, 0x3ed08dadbe3512a5U,
  0x3e50d4f13bfe7e5eU, 0xbea4e86ebeb536fcU, 0xbe6389783d3378ccU, 0x3eaeecd5bec74a78U,
  0x3e88fb543d586baaU, 0xbe1512f7be5f4e21U, 0xbf97cc9dbed5af69U, 0x3ea2e3d8be985e59U,
  0xbd8e9623bd82e197U, 0xbed13e9abf1f6c90U, 0x3e35f4a5be8abfabU, 0xbcb8bd7e3cb0236bU,
  0x3e8629a33d037be1U, 0xbda815d2be259a9bU, 0x3ead52fb3e2abaf0U, 0x3d0ad201bfaa4808U,
  0xbeeea6ff3d82e32dU, 0xbe17597ebeb20f48U, 0xbca0adf0be693e81U, 0x3e3db32bbea28355U,
  0x3efc705c3e98bcf4U, 0x3e695e0fbe4d5995U, 0x3dd379bcbf48787fU, 0xbf05134abf0388c5U,
  0xbd45ed643e34b8d0U, 0x3de262af3e2443d4U, 0x3df8f3843eb5068aU, 0xbf4bf3013d600de1U,
  0x3eb5647f3cc4a47cU, 0xbfb4643dc034cc4bU, 0x3d4f48a33e0f86a1U, 0xbde9cfcabd83c687U,
  0x3d3a37473d9867c6U, 0xbeef192a3ea987c9U, 0x3e101723be87ece4U, 0xbef942a4be81826fU,
  0xbcf1bd853f62a859U, 0x3d9c56073e15eac6U, 0xbf5033713e860a58U, 0xbd903eaa3dcb9591U,
  0x3ebcc4d73e92f25dU, 0xbe85c7813eb97edfU, 0xbd2307f93e2cd29eU, 0xbde560c83defb6e4U,
  0xbc9349863dead0a4U, 0x3eaa4a14bd8c7a5fU, 0x3dc5d6283df77ef5U, 0x3eb0e368be5a284cU,
  0x3e2ea2ec39537098U, 0x3d9574e8bdfe4018U, 0xbe165b2dbdd6288fU, 0x3e095512be378359U,
  0xbecee5033dea991aU, 0x3e4febe9bf3f4448U, 0x3c63f4e93e9255a5U, 0xbeaa64363dd7de40U,
  0xbfb3b980bcf12b24U, 0x3f1305e1baa937ecU, 0x3e136cbd3ee0470aU, 0xbe80818bbec29d2bU,
  0x3e66d425bd671006U, 0x3e7923f1be1d9d5aU, 0x3e2ba229bea53d99U, 0xbf73e59fb9ea169aU,
  0x3e358ad33ddaead8U, 0xbd9a8e2dbf0de638U, 0xbc83f629bdaeafc7U, 0xbd62b7653d8e1b37U,
  0x3a1c825fbbfd7632U, 0xbdda71223e58081bU, 0x3ea2b2b93dc4d8a2U, 0x3ee456c83d6aad56U,
  0x3c8106dcbf8c0ea8U, 0x3e2cef5bbe84eff1U, 0x3ece43403db9c6f6U, 0xbe174023bc97f121U,
  0x3de37c4fbdec7c89U, 0xbef00f723e6ea65fU, 0xbd9f9daf3e21fe8aU, 0xbd8bba46bf26bf5fU,
  0x3e9d01b2be05826bU, 0xbe210cb7bd9c7c47U, 0xbd3def2a3e07e3f1U, 0xbece4bde3e9a887aU,
  0xbeb40d293e3e8519U, 0xbef00763bca98f6cU, 0x3c3cec8f3ddce2caU, 0x3e095f4a3e8daf0fU,
  0x3cc59a86bd97dfd3U, 0xbf21f3f0bde2c041U, 0xbd968d8fbe64864bU, 0x3e59b0f73d856df1U,
  0xbf611e2f3e9c2c94U, 0x3e9a851dbd46825fU, 0xbf4225b43f094547U, 0xbd0cbbde3de4b2aeU,
  0xbe9c41c73e01444dU, 0x3dbc2188bcdfac65U, 0xbe6578433e6e836fU, 0xbf2095aebdecc579U,
  0x3e8ae87dbe36f5dfU, 0x3ec3ecde3f1a719eU, 0x3eac27a73ce90718U, 0x3e5f3ce23f4be0ceU,
  0x3e193fd83e0473fbU, 0xbe6dae5b3dc05eacU, 0x3f5f026dbf2166b1U, 0x3e942b8cbdb74ab2U,
  0xbd4eeb22bec0208dU, 0x3de4c9923f88e85eU, 0x3ef9e9203f0901dcU, 0x3f227e76be259c32U,
  0xbf0068bfbeb120a2U, 0xbf1870853f1cab29U, 0x3e1051aa3de9f6eeU, 0xbdb258873e9a9269U,
  0xbde0465ebf62ff7bU, 0x3e31b3223eddce1bU, 0xbeeeee8a3bdff5fcU, 0xbe993c45bf57edbbU,
  0x3e5739bd3e4e422eU, 0xbea14a373e334cc6U, 0xbef455e3bda71788U, 0x3d01b7253e80f9b4U,
  0x3e3c30c8be916491U, 0xbf5a25603e68ea0cU, 0xbdd98effbee55b6bU, 0xbf8d5d41bf128cd1U,
  0x3f46de72be5987beU, 0x3f81c4e0bcec974bU, 0xbd7fda47bec9a090U, 0xbef440ae3e940aeaU,
  0xbdbd3584bd2962e1U, 0x3e635fa13d565988U, 0x3e8addf6bded6e18U, 0xbe5557f7be7cee1fU,
  0xbd32dafe3cb3fe69U, 0x3f4d05c3bf2e0577U, 0xbf518d573e3d3ff1U, 0x3e3aaa853ec875c8U,
  0xbeb861d8becb96b9U, 0x3e2423e83d8c922bU, 0x3ece558fbfb325a8U, 0x3e1700a83ebeed30U,
  0x3ee6d39cbe7f6505U, 0xbe8971f6bf0eba12U, 0x3dde67283f076a4bU, 0x3dcb083a3e3f65e7U,
  0x3d80a1033e5a901eU, 0xbe4aa21abafe06b4U, 0x3eab3151bf10a05bU, 0x3df978dfbf051a46U,
  0xbf218586b9eb09cfU, 0xbcee7bcfbf6be3beU, 0xbf37ac903d4c36a1U, 0xbe0222ea3e6bed69U,
  0xbfe44176be16b3f4U, 0x3df7b92e3e1d241dU, 0x3d19f5283e68a89dU, 0xbebd28a9be9f8ec3U,
  0xbe04caf23e36f412U, 0x3d6d5557bdd97a43U, 0x3ef6c3f5be259e8dU, 0xbe2d0cc0be30f345U,
  0x3cd1b47f3e0d53c8U, 0xbf9889753f10ad43U, 0x3ccbec503e7f0a8bU, 0x3d1cd6fb3e181cfbU,
  0x3e0851883d8abefeU, 0x3eb903a0be2036f7U, 0x3e1c70f43e9ef33cU, 0xbd0c6450bd765ff4U,
  0xbe760af5c00bb1d6U, 0xbf5d2c3d3eca6104U, 0x3eb8e1f23cefdf13U, 0xbe8725703e47fc67U,
  0x3de317aebd588afcU, 0xbe33fe793f1ae7bcU, 0xbd67c9823f10c4e2U, 0xbf87eb0f3ee9ced1U,
  0x3e1f8533be82351dU, 0xbf393abf3e0da48bU, 0x3e2c314dbeb6c0e8U, 0x3eb6bb653e95fa49U,
  0x3f4421733dc1a986U, 0xbe805f5d3d9dfc4aU, 0xbf5d2acc3e86dadfU, 0xbdca03e13e8628d8U,
  0xbd3168b43edd0c23U, 0x3f2fc5b83ee7992dU, 0x3e229938be996df2U, 0xbcf124de3e3ebac1U,
  0xc00bb2a7bee1279eU, 0xbd994ab0be467940U, 0xbf53cd883e01d9fcU, 0xbe4ed6ba3eb6da16U,
  0x3e414dbc3cd15ccbU, 0x3e987c2ebedba3c3U, 0xbe956b333ed6f7c1U, 0xbede5a323e6dad71U,
  0x3ee81c07bf122ec4U, 0x3e6bc53bbdd0b3c7U, 0xbe79cfc2bd840335U, 0x3e7a0e5f3ebe4e7bU,
  0xbd2d1fa2beb60330U, 0xbeb75a09bd1f3b69U, 0xbeede788bcf73d63U, 0x3dbfa0adbec4486aU,
  0xbd113277be38a3a8U, 0xbe7b15dc3f20c86eU, 0xbe232b133e8247e3U, 0x3ea3fb733deb11c1U,
  0xbf1468ebbb276f02U, 0xbebc9f58bd976a5fU, 0xbea0d5083eb1ab2aU, 0xbf04838d3eb2abdfU,
  0x3ebb4d3cbfad3f66U, 0xbe99d86cbe02575dU, 0xbe7555823e98c7f3U, 0x3ca908adbf92b0b0U,
  0x3dde7f2d3ed4016eU, 0x3d4dfebfbbd43d3dU, 0x3eb5b4e8beb98da1U, 0xbd0585783c393f5eU,
  0x3ec94afb3cb10f07U, 0xbcaebaa63e2ffa0eU, 0x3e63db54be6e34f5U, 0xbe2bd14f3ec82cf6U,
  0x3eca4d1dbeb17e88U, 0xbd4c8a01be99a6d4U, 0xbe2b50fe3ea73708U, 0xbe52a74f3e603927U,
  0xbe9c69ce3dc742b8U, 0xbd8bce5c3cf129e5U, 0x3d6ac360bf0ed013U, 0xbf8a766ebec8db6aU,
  0xbe69e1b3bf2369cbU, 0x3eadb5673eb07502U, 0xbf1f12c03ebe6d67U, 0x3e563c1dbbb50affU,
  0xbe15d0eb3e349273U, 0xbe48d3a0be85ff51U, 0x3f0755193d9420dbU, 0x3dc74ee93edbe9b9U,
  0x3f8256ac3d5ed46bU, 0x3ede821dbf694fc7U, 0x3f054c7c3e97fec9U, 0x3eaba8c4be19bc45U,
  0xbe4a1becbc55c26cU, 0xbe541352ba61f5c3U, 0x3d3dc1a1be25819cU, 0xbe70d633bda47535U,
  0xbc602e7a3d806187U, 0xbdaa5debbe3f7e03U, 0xbd046de7be140d29U, 0x3e07a5fdbe7dcfc1U,
  0xbe546dd7be66d0b6U, 0x3c142cd7be0cad50U, 0x3d2a4787be4da9faU, 0x3ddc5fc8be0b4376U,
  0xbd43e208bdd5cef9U, 0xbe721d98be878655U, 0xbe452b323da711dfU, 0xbb720c713d227f3aU,
  0xbe4161a1be853fd5U, 0x3dff2f653b2dcee7U, 0xbe558a7ababfc67cU, 0xbe072707be3a1e93U,
  0xbdc9aae5be9dfd7eU, 0x3d2340ba3d7b982aU, 0x3a84d667be01f39fU, 0xbe22b0afbe3c24abU,
  0xbd4f7eeb3ddd3873U, 0xbd29125f3dc645d6U, 0xbe934554be010e0bU, 0xbdbb8bd03dedd80dU,
  0xbe922d593cf37496U, 0x3de2a55bbce0e27aU, 0x3cddfadcbd192595U, 0x3e07a0203dad6679U,
  0xbd36b747bc8fd67fU, 0x3c814653bb5e13d3U, 0xbdbd4defbd74d29cU, 0xba97a1483d6ca076U,
  0xbc70b4563dfd2f4bU, 0xbca984f2bd5844e4U, 0x3d9dff4bbdd4490cU, 0x3d8848473d280f8aU,
  0xbdb1e1f4bd443d2aU, 0xbe9a83e13d63617cU, 0xbe1f69b33d5a6bd6U, 0xbe3688853d6431c7U,
  0xbd3269bdbe594584U, 0xbe18f3c9bd73c61fU, 0x3d22dbd0bd8eb6b0U, 0x3af86f163d5f061dU,
  0xbe55732bbe064fa8U, 0xbe1628cfbdb2416dU, 0xbe4e77fabde565bdU, 0xbe4798203f13c53bU,
  0xbee7bb4f3dc741caU, 0xbf4b9a603e897bfdU, 0x3ed561dbbbf6a92aU, 0x3e091157bff5d9fbU,
  0x3cb2d552bed4a31cU, 0x3eef65b23ebc4170U, 0xbfd681883e7330b4U, 0xbe930196be8220aeU,
  0x3d582fe23eafda7fU, 0x3f4e16d7bd9bc981U, 0x3d2f97a03ec076eeU, 0xbfb4d4f73e866cd2U,
  0xbecd81273edcfbf5U, 0xbf87b3cf3e45a080U, 0xbf06f34b3e0875fbU, 0x3d3acdde3eb920b2U,
  0xbe1d53b93c4cb8deU, 0xbf0400aa3e63570eU, 0x3ebe86acbdffec96U, 0x3e8871eabf1fda66U,
  0xbc04909c3d0fc18aU, 0xbe6ce9edbe9a3637U, 0xbddbe7683ee4b881U, 0x3e55593bbf18fe23U,
  0x3e131c3d3e2d0a04U, 0xbe26a0623dc28b22U, 0x3e44bc3cbc64dd9cU, 0xbb9281a53de226c6U,
  0xbf1677213e2dbf4eU, 0xbf474dbfbc05ead3U, 0x3d1696a23dd8cc72U, 0x3d99cff13de831f6U,
  0x3e16745f3db8ce7cU, 0x3f021276bbe1fd9aU, 0x3e8cd3323d629eb9U, 0x3e58954c3dd16aabU,
  0x3c25552c3e5d598cU, 0xbfdf0ddabf16250fU, 0x3da494833d3370c0U, 0xbf548a62be9c3337U,
  0x3e9506a8bde5cc2dU, 0xc09c4f52bcfe7759U, 0xbfdde9343e414044U, 0x3e55abe73ed449bfU,
  0xc049b1a1be418a81U, 0x3e1abc113cd74e93U, 0xbeba2daf3edebeceU, 0xbed66eba3ec4c4a5U,
  0x3ecbb447be9670fbU, 0x3e1cd9edbe7a1642U, 0xbda27a02bec46befU, 0xbeae0c23be1a7891U,
  0xbdef23e73d8b6df0U, 0x3da8ac233d9d2fd9U, 0x3dad77f3beb39ad1U, 0xbe03005a3e18124cU,
  0x3fda9aff3f30f1f6U, 0xbdbe4397be3262c8U, 0x3e9240653f5ed824U, 0xbc30d7bbbd80227aU,
  0xbf53ee65bca60e53U, 0xbdedfb393f3a6fcaU, 0x3f4596453e0f6c1fU, 0xbd397061be3f9fc2U,
  0xbe9262dc3da5776cU, 0x3e56c919bf500340U, 0xbf122646be2d9eb2U, 0xbf0af49b3dfe91bbU,
  0xbcc4f714bf301c17U, 0x3ec0b32d3f5246c2U, 0xbe9fdf64be912563U, 0xbf0fd9bd3e8a49f7U,
  0x3ee7141ebe9471caU, 0xbf38ac933cb60c49U, 0x3e4d54833ec847f6U, 0xbf4163e3bdae109fU,
  0x3e6a46743ee039f0U, 0x3f85cd993c66bd51U, 0x3d12cff63ecbd745U, 0x3e575d073efd6f7cU,
  0x3ea98f933efc1b7dU, 0x3d45c925be67d2aaU, 0x3d321ac83edd9df7U, 0xbf1ca4bf3e1ae056U,
  0xbeeecd8ebe5d4da2U, 0x3f8dd5d3bf102ea5U, 0xbc993aaf3f442a48U, 0xbd82e396bf44d03aU,
  0x3f2938e1be79e2f5U, 0xbea8c584be6a5f50U, 0x3df210eb3dcf7ccfU, 0xbfc484c2bd978af8U,
  0xbf251fec3e002ac3U, 0xbe9198b3bd09f451U, 0x3f09e3fc3ecffd40U, 0x3f06d0d93ecf18cdU,
  0xbf1a0c453dce484bU, 0xbefab6073c299b20U, 0x3e6374373e86e76eU, 0x3b1adab63e30d746U,
  0x3ecb8d69be9418f1U, 0x3f29a76dbf1f5dc3U, 0xbf36108fbc9b9e9cU, 0x3e4918f6bffda54fU,
  0x3d13cb65bf54109fU, 0xbf8a12efbd6b0ef7U, 0xc001eca9bf1a4695U, 0xbd0a4854bcdad19bU,
  0xbf078e84be6f8defU, 0xbe5bdcf4bfa26993U, 0x3de89c11be80a79bU, 0xbe0cd2f4bef2c743U,
  0x3ce2c948bed48bdfU, 0xbf3a3f09bd813c49U, 0x3e67cb063e31f445U, 0xbf1899a0bd8d78c1U,
  0x3e8a96c93e9b959bU, 0xbf795fbc3d9df560U, 0x3d84e2973ebb7d68U, 0x3c21006b3eb532a8U,
  0x3d99ada43e136234U, 0x3dbea0f4be1959a8U, 0xbeb82a20bf236a9eU, 0xbe8b8649bf0814c9U,
  0xbef63a703eafa637U, 0xbee2cf96bd0539c2U, 0xbee7ab77bf539a7aU, 0x3d7ff1ff3efa3c56U,
  0xbebf643e3ef7a3fdU, 0x3f3d0ec73f0a7cd8U, 0x3f151442beb7b94dU, 0xc00646f2bcbbea1cU,
  0xbf42b279beea9bc3U, 0x3e913f153eaead68U, 0x3ec1b5eabbe7fdf1U, 0x3e4c0fe8bf80c9bdU,
  0xbe11c66b3ea9769bU, 0x3dd6bdff3d1831ceU, 0xbe8a67bc3e0d883eU, 0xbd221cedbca5878cU,
  0x3da3891a3c6a119eU, 0x3d9be036be172cb6U, 0xc00417f7bfb8fab5U, 0x3e93013bbe3cf638U,
  0xbfdc7f6cbe8210c2U, 0xbe1550dfbee02588U, 0x3dd267fe3e75f896U, 0x3f3e18153e3981b0U,
  0xbdce981ebf0f5f12U, 0x3e2b0f363df6f95cU, 0xbe210c7bbdcd7955U, 0xbebdb6b33e900dd5U,
  0x3f1086313e4621ddU, 0x3e6136ce3dad14f9U, 0x3dce9504be0de4b7U, 0xbeafd903be83f53fU,
  0xbfe23648bf3e2344U, 0x3d05e5723e7de63eU, 0xbf135a4abe6ee5daU, 0xbe97027c3ead95c6U,
  0x3e44df9e3eb30ef8U, 0x3e6e837cbf698424U, 0xbeef59e43d4c8877U, 0xbea9f5643ee833c3U,
  0xbea912ed3d5d7fa8U, 0xbd6959a7bdc01fa6U, 0x3f23205a3ed356eaU, 0xbeb223723dc288b0U,
  0xbe201a52bcce885cU, 0x3f01bce0beb3bcbdU, 0x3ded40bbbe59c7a6U, 0xbe69fe663ea7bb30U,
  0x3cc64fb43dc3c13bU, 0x3d9536dbbe17c48eU, 0xbf1d66e43e5aa9c8U, 0xbed9cc35be2ddc90U,
  0xbf074d32bea0a7b9U, 0xbebc7340bed45f47U, 0x3e90bc0dbe93f405U, 0xbcbac0323e487f02U,
  0x3d0aea6bbebc0ad5U, 0xbe8c22453cac37a5U, 0xbec9ba9c3c59c412U, 0x3e83a9ad3bbc5b54U,
  0xbd4c72da3c8c51a3U, 0x3ea03bffbf18a456U, 0x3ed2e784bf3b071cU, 0xbf0158c9be7353fcU,
  0x3e8f5b293e8cc98eU, 0xbd9ac4ffbd98d9e7U, 0x3e9780abbd82177dU, 0xbe5bb6053e8ef8eeU,
  0x3e2fff8ebe999408U, 0x3be67762be8e736dU, 0xbea1dfe4bd6740c8U, 0x3e03a8193eefbf4eU,
  0xbeb4c3603ec33b94U, 0x3d6fbe663ea96934U, 0xbdccb872be6d749aU, 0x3d62c8d83e0022bfU,
  0xbe3c3cbebd7240c2U, 0x3d091d6cbda2100bU, 0xbd448685be175f98U, 0x3d46d09abe1cb26aU,
  0xbc75f53dbcf759f2U, 0x3d2a7e18bca48417U, 0x3cf4ddf2bd6c231dU, 0xbe352771bde528b0U,
  0xbd08d4693da9fac2U, 0x3d3b66443e0f118dU, 0x3dd590f93d1b99ffU, 0xbc85f495be41c796U,
  0xbb819260bdea677bU, 0xbd4ad85cbdb6a5d3U, 0x3dfb08d13d26e028U, 0x3ddb3f073e08c3eaU,
  0xbd9ae87abdc12a53U, 0x3c760e5bbb322e3dU, 0xbe621520bdc6b755U, 0x3e0028e1bdf660cfU,
  0xbe63f382bcf273b5U, 0xbdd7118fbe21987fU, 0x3dc96b05be430e73U, 0x3e082dc6bdcc7b71U,
  0xbe3677503cb28ac4U, 0xbcdf7003bdb2b616U, 0xbcf1a27bbe39dc5eU, 0x3d02b59abd463fceU,
  0xbd47a1afbd2a3e74U, 0x3db3e032bde38c81U, 0xbe0e26c3be09c480U, 0xbd9f4082be5e156dU,
  0x3d9ad23c3d72cd20U, 0xbdc18ff4be2fb4d8U, 0x3d2d8503bc1f4bc4U, 0x3e0b81d4bdcd0584U,
  0xbca4650ebe0bd60bU, 0x3caefed03c4dee6fU, 0x3cc0e2a7be0cd00cU, 0x3e1711be3e2904d3U,
  0x3c269dccbe0c6d8fU, 0xbcb4b9023dba7a3cU, 0xbdcdc6733e0588bdU, 0xbe08f2c1be603c50U,
  0xbd3a9819bdb9988fU, 0xbe59ed52bdca7bbaU, 0xbda89143bd94ee47U, 0x3db402b2be7cf956U,
  0xbd14465dbf510ddfU, 0xbdeff6aabeced6bbU, 0x3de11fb3bee27400U, 0x3ebed86c3d63e4ecU,
  0xbddcbfecbd933504U, 0x3e9f065c3facbabdU, 0x3e8c5192be43e963U, 0xbf26bcdfbec50927U,
  0x3f38caa23f0f3b07U, 0x3e03e75fbeaf8d1eU, 0x3e969a543f5b45f2U, 0x3f05f1d23ef3823eU,
  0x3e968efabd7de7a4U, 0xbe06fa513f0f85fbU, 0x3ee2c7a0be715c60U, 0x3f790bd63ba5c90fU,
  0x3e9353113e80b6e4U, 0xbf0bfc6abefb0607U, 0x3f7484fdbe8d985fU, 0x3e9122d3be39efa3U,
  0xbe5b6e003e46d2b6U, 0xbb8ebb533f179c19U, 0x3e2150db3c37c3d5U, 0xbe321c3f3ea3f52cU,
  0xbcb0a69a3ee33657U, 0xbf267cddbde929a9U, 0x3e372853bd384f51U, 0xbedd3c79bd37b799U,
  0x3d229cf93e93f919U, 0xbf5ffee6beb7d105U, 0x3ed8e1333d7c8377U, 0x3ec586d83d1c2e09U,
  0xbe79729d3e8ded62U, 0xbd1c58f83eb50f9bU, 0xbeaa2973be57fa22U, 0xbea343a9be359ba0U,
  0xbe20ccfdbf513aceU, 0xbf157ee8be0dfc7eU, 0xbc93f9813f4d0595U, 0xbeac0ca73ea4f936U,
  0x3d8ccba13e80a413U, 0x3f12c3ffbd085f31U, 0xbdb3a6d43f05ecdeU, 0x3e2f75dabe502cdaU,
  0x3fea0345bea4476bU, 0x3d76d68f3e25ac8bU, 0x3fd27ea7bef27c3cU, 0xbc1c3cc5be72f918U,
  0x3e8ec1f7bb97e05aU, 0x3d70809bbda0e94eU, 0xbec4adcb3e5df2c7U, 0xbdc09450be484bdeU,
  0x3dd436843cdf9915U, 0x3df424363eb42abcU, 0x3e2f1c5f3e03a089U, 0x3e883d20bd63484eU,
  0x3df64aba3ea2ebe0U, 0xbf0af1babd406632U, 0xc01a7e36be32ad81U, 0xbedaa2b43d22408aU,
  0xbf5df7da3d65ef84U, 0x3e999a053f2c1bb6U, 0xbefaf4233f2a3d65U, 0x3eb3b1d9bfa7e454U,
  0xbecf82663d15c3bcU, 0x3de89fc03ef1ea36U, 0xbe72ad413af5b042U, 0x3ebf3c8fbebe8831U,
  0x3f3342cbbe9f4f01U, 0xbeb1234abca7be48U, 0xbf10fae83e865d26U, 0x3d9306cb3e84e593U,
  0xbd836bf8bf071fedU, 0xbefdf18d3e8fd4efU, 0xbdf797c2be3c1b07U, 0xbe9560a63ccdde37U,
  0x3d7f66d5bd94072aU, 0xbeb3cb95bee3f2f4U, 0x3df689373e2f41ccU, 0xbf3b2882bf373595U,
  0x3f692ee9bf330f9cU, 0xbe611c9dbe83b869U, 0x3d549e793e8d8edfU, 0xbe49e0ae3e921abaU,
  0x3d70e5b73c8303feU, 0x3adb2cbabeb5a5fdU, 0x3eef11ddbefd7cc9U, 0xbe91b2fbbe08bba1U,
  0x3ea3852bbf3473cdU, 0x3e084d633e84ceeaU, 0xbe677fbd3d6ad8bcU, 0x3f040925bf3acf53U,
  0xbebcfa6d3eb37fa1U, 0x3e72151dbe0d5470U, 0x3f626db9bec790c8U, 0xbcb629613e7df520U,
  0x3f72a7a9be78adeeU, 0xbe0e7419bfc4b62dU, 0xbe0b1c81be6628cdU, 0xbe290c253e895e4aU,
  0xbe315b3bbe342f42U, 0xbeca6342bf25c2d7U, 0xbe9968fc3cd416c0U, 0x3e302d4bbe6928b6U,
  0xbed2f01fbdaa8f27U, 0xbd23dfcbbf3e26efU, 0x3e0fd722be0c8a94U, 0xbe65c3bdbc5d4c70U,
  0xbf64035bbed996f6U, 0xbe32195abe14e091U, 0x3e050d7abe90437cU, 0xbdb53c323df1c1b2U,
  0xbddb9afbbf1e0d60U, 0xbd02a860bd8b99d7U, 0xbd151840bec1b239U, 0xbe1f0bd3be720608U,
  0xbd98203d3d770fb9U, 0xbdd1ea56be7fc05eU, 0xbe310459beb28022U, 0x3e70169abd8a0996U,
  0xbe8b963b3e2e069eU, 0xbe7115bcbd1b4992U, 0x3e493165bd805febU, 0x3e821723bc9fbcc7U,
  0xbea7a185bea564cbU, 0x3e34f06a3d8c5531U, 0x3dc786fcbdad696eU, 0xbdbfa6643d1a8ad8U,
  0x3d0c2767be1b7160U, 0x3e77fd1e3db72d6eU, 0x3c68290ebd6f885dU, 0x3f4ccbacbb2d0373U,
  0x3dde1542bdc5496dU, 0x3e3cfcc6bf05dbb6U, 0xbe0d8030be7cbd71U, 0xbe8d58e93ed71d35U,
  0x3c3adcf93ea7b976U, 0xbe4005163e869d7aU, 0x3e8d6ca9be237108U, 0x3d18e1393e8ee19fU,
  0x3f0a5393be9fc25bU, 0xbe43a0bb3e5ab04eU, 0xbf5e3e24bdd8ff6fU, 0xbe5dfad23e7aa8bbU,
  0xbf7b6a4abe12d3a3U, 0xbe391691bea4e612U, 0xbecec7da3ea4f911U, 0x3d6ed726bb2daf00U,
  0xbe38adc6bee03639U, 0x3dc7f71a3e70e072U, 0x3e69e4353ea0aed9U, 0xbe95a7bfbe8f3411U,
  0x3f290554bf504ad3U, 0xbd5b2e14bee29180U, 0xbe980aaabc8c16a2U, 0x3ddc7acac01ca12cU,
  0xbe9d78403d19d7efU, 0xbf3f80a5be2a95dfU, 0xbf85b83b3df2e2d7U, 0x3ee93b283e99eee8U,
  0x3ddd65693e842ce7U, 0xbebf06983ef3ea8fU, 0xbd9f55183dc0c049U, 0x3e0bf3df3f12a89dU,
  0xbf332eb5bf8fd31eU, 0xbd6b76943e746861U, 0xbe47ac4bbd51a309U, 0xbf3d51713db3ff93U,
  0x3d943413bda0a791U, 0xbc5851633ee2aa4eU, 0x3dadd7e93e306d21U, 0xbe21198bbfae07dfU,
  0x3ea5f24d3e342385U, 0xbd572185beaea971U, 0xbf0b83a0bf9ddd11U, 0xbf68227d3e6a5405U,
  0x3f46a6fb3e426376U, 0xbef0f8903eae3ee4U, 0x3e775b83bf3f2338U, 0x3d9746fe3e8c7006U,
  0xbfa8b00c3e9884a4U, 0xbae747fdbeb2ae52U, 0x3e838b8dbe1aa30cU, 0xbecaddcdbe42f8ecU,
  0x3f0a2d6abe5cef7dU, 0x3d06a78e3ef7b0e5U, 0x3f7adbe73c53736eU, 0xbe0a213fbe0a3adfU,
  0xbf6548503efe585eU, 0x3db3ed95bdb563edU, 0xbe22ea283e1b9e7eU, 0x3d290e3c3e2e0227U,
  0xbef9de53baa83780U, 0xbd978ca33dad962aU, 0xbf9e16f1bf848f86U, 0xbd3734c63f03fb7bU,
